<unk>	0
<s>	0
</s>	0
--	-0
----	-1
re	-2
in	-3
co	-4
th	-5
er	-6
de	-7
on	-8
or	-9
▁a	-10
--------	-11
en	-12
es	-13
▁|	-14
==	-15
it	-16
at	-17
▁th	-18
lo	-19
is	-20
il	-21
com	-22
ar	-23
ed	-24
li	-25
ck	-26
le	-27
▁t	-28
▁`	-29
▁s	-30
ion	-31
</	-32
▁f	-33
an	-34
tt	-35
ps	-36
▁the	-37
as	-38
ou	-39
ing	-40
ith	-41
//	-42
htt	-43
----------------	-44
▁<	-45
ch	-46
://	-47
https	-48
ub	-49
▁w	-50
ent	-51
blo	-52
bu	-53
block	-54
▁[	-55
st	-56
ct	-57
ithub	-58
github	-59
▁re	-60
▁m	-61
▁to	-62
al	-63
code	-64
ul	-65
ot	-66
▁in	-67
▁p	-68
▁h	-69
ro	-70
ss	-71
ge	-72
am	-73
▁b	-74
▁an	-75
ab	-76
ut	-77
===	-78
ild	-79
▁P	-80
build	-81
ary	-82
ment	-83
ri	-84
▁n	-85
▁B	-86
▁===	-87
se	-88
est	-89
▁T	-90
vi	-91
▁o	-92
con	-93
ce	-94
▁-	-95
20	-96
lib	-97
▁c	-98
▁C	-99
▁u	-100
▁and	-101
ref	-102
ve	-103
ad	-104
css	-105
ew	-106
▁d	-107
▁I	-108
libr	-109
▁for	-110
▁"	-111
if	-112
library	-113
](	-114
▁(	-115
ull	-116
▁D	-117
po	-118
el	-119
▁is	-120
▁on	-121
="	-122
pt	-123
blocks	-124
su	-125
Re	-126
**	-127
▁this	-128
ex	-129
▁PR	-130
im	-131
ver	-132
▁#	-133
our	-134
qu	-135
pen	-136
ig	-137
▁y	-138
▁1	-139
utm	-140
ation	-141
ate	-142
">	-143
ic	-144
▁href	-145
]:	-146
om	-147
====	-148
low	-149
pa	-150
ter	-151
py	-152
ta	-153
un	-154
▁A	-155
▁of	-156
▁be	-157
ly	-158
pull	-159
ode	-160
view	-161
comment	-162
ase	-163
mit	-164
▁it	-165
▁Th	-166
age	-167
▁con	-168
red	-169
pp	-170
ur	-171
sty	-172
▁de	-173
tl	-174
ow	-175
ix	-176
ke	-177
style	-178
em	-179
um	-180
la	-181
></	-182
ra	-183
▁ch	-184
▁S	-185
▁U	-186
ire	-187
00	-188
der	-189
▁>	-190
et	-191
cri	-192
rtl	-193
ction	-194
yp	-195
▁Re	-196
js	-197
ist	-198
cript	-199
▁l	-200
edit	-201
ker	-202
te	-203
ol	-204
ore	-205
▁with	-206
ame	-207
io	-208
ts	-209
us	-210
dd	-211
ill	-212
ges	-213
ity	-214
irect	-215
pend	-216
><	-217
oc	-218
▁g	-219
▁https	-220
sion	-221
abot	-222
pendabot	-223
tr	-224
▁you	-225
ere	-226
ec	-227
.1	-228
pr	-229
▁wh	-230
rc	-231
and	-232
▁ex	-233
ign	-234
editor	-235
atch	-236
▁that	-237
21	-238
▁F	-239
out	-240
commit	-241
rom	-242
.0	-243
pd	-244
ass	-245
▁al	-246
escript	-247
▁</	-248
ort	-249
keras	-250
flow	-251
▁not	-252
ure	-253
▁by	-254
",	-255
▁##	-256
▁k	-257
▁ma	-258
ils	-259
▁--	-260
min	-261
%20	-262
tor	-263
▁will	-264
redirect	-265
ma	-266
▁@	-267
========	-268
ens	-269
able	-270
lease	-271
itle	-272
":	-273
ess	-274
▁us	-275
ers	-276
``	-277
ments	-278
16	-279
id	-280
erge	-281
for	-282
ack	-283
▁M	-284
▁2	-285
▁your	-286
▁```	-287
imp	-288
▁from	-289
quest	-290
gh	-291
ile	-292
tails	-293
"><	-294
▁st	-295
▁chan	-296
mary	-297
▁or	-298
cont	-299
lin	-300
sues	-301
ect	-302
pl	-303
od	-304
comp	-305
▁co	-306
ated	-307
dependabot	-308
▁as	-309
▁can	-310
..	-311
▁`@	-312
▁N	-313
▁kB	-314
sum	-315
29	-316
Code	-317
err	-318
▁test	-319
▁pro	-320
ource	-321
ensor	-322
fa	-323
ks	-324
▁3	-325
bot	-326
but	-327
torch	-328
escription	-329
details	-330
dex	-331
src	-332
!--	-333
25	-334
ir	-335
per	-336
ave	-337
ded	-338
▁se	-339
▁Description	-340
patch	-341
▁<!--	-342
▁W	-343
▁Dif	-344
summary	-345
eck	-346
rl	-347
ud	-348
▁Com	-349
org	-350
▁e	-351
ff	-352
bit	-353
comments	-354
▁v	-355
/1	-356
▁Repo	-357
──	-358
▁*	-359
nt	-360
▁**	-361
▁are	-362
▁Title	-363
gin	-364
▁Url	-365
ld	-366
pytorch	-367
index	-368
ress	-369
).	-370
▁:	-371
to	-372
ide	-373
ue	-374
abbit	-375
version	-376
▁r	-377
▁su	-378
▁H	-379
issues	-380
art	-381
ocs	-382
▁lo	-383
ctions	-384
64	-385
sh	-386
end	-387
ant	-388
ca	-389
▁un	-390
15	-391
so	-392
tri	-393
form	-394
source	-395
▁L	-396
ind	-397
24	-398
▁sh	-399
▁G	-400
team	-401
gg	-402
-20	-403
cov	-404
typ	-405
VE	-406
▁E	-407
▁-->	-408
▁we	-409
:1	-410
ite	-411
ext	-412
ef	-413
edi	-414
▁have	-415
ould	-416
▁This	-417
19	-418
all	-419
lu	-420
lic	-421
iz	-422
23	-423
medi	-424
comm	-425
▁Comments	-426
Review	-427
ult	-428
ang	-429
▁if	-430
nc	-431
ally	-432
content	-433
mo	-434
gi	-435
sp	-436
54	-437
27	-438
26	-439
▁O	-440
ag	-441
ay	-442
▁add	-443
▁code	-444
">#	-445
codecov	-446
▁The	-447
ong	-448
str	-449
int	-450
post	-451
CVE	-452
ap	-453
)</	-454
op	-455
iles	-456
cgi	-457
ai	-458
73	-459
cre	-460
.3	-461
ote	-462
pdate	-463
oo	-464
ip	-465
ree	-466
▁4	-467
▁merge	-468
one	-469
pro	-470
78	-471
ash	-472
▁fix	-473
▁version	-474
56	-475
app	-476
ali	-477
ork	-478
08	-479
res	-480
18	-481
own	-482
eed	-483
medium	-484
ensorflow	-485
ions	-486
ine	-487
▁new	-488
▁any	-489
▁do	-490
ww	-491
ata	-492
▁0	-493
docs	-494
coder	-495
init	-496
43	-497
term	-498
▁more	-499
▁R	-500
▁{	-501
test	-502
ust	-503
▁(<	-504
13	-505
▁+	-506
53	-507
cc	-508
****	-509
ome	-510
.2	-511
Reviewer	-512
▁review	-513
tensorflow	-514
core	-515
nd	-516
name	-517
cam	-518
ser	-519
79	-520
ib	-521
49	-522
▁###	-523
paign	-524
coderabbit	-525
campaign	-526
rou	-527
ely	-528
loud	-529
10	-530
ies	-531
ail	-532
▁use	-533
59	-534
ory	-535
2>	-536
28	-537
referr	-538
referral	-539
ci	-540
ther	-541
mar	-542
bin	-543
ph	-544
act	-545
ard	-546
▁Y	-547
63	-548
ee	-549
Typ	-550
ven	-551
▁comp	-552
▁request	-553
▁7	-554
gs	-555
▁at	-556
55	-557
ber	-558
17	-559
▁}	-560
▁'	-561
ject	-562
▁en	-563
ml	-564
ages	-565
ead	-566
▁/	-567
================	-568
▁changes	-569
14	-570
son	-571
par	-572
▁De	-573
▁imp	-574
iff	-575
md	-576
review	-577
▁ab	-578
thon	-579
▁li	-580
58	-581
fla	-582
.4	-583
fig	-584
av	-585
ener	-586
▁Ch	-587
verage	-588
ime	-589
ive	-590
ht	-591
ial	-592
actions	-593
▁Than	-594
pport	-595
pende	-596
▁me	-597
port	-598
sonar	-599
ran	-600
open	-601
▁when	-602
tain	-603
▁but	-604
put	-605
ific	-606
▁=	-607
up	-608
▁commit	-609
▁comment	-610
▁clo	-611
sue	-612
alid	-613
pendenc	-614
![	-615
▁file	-616
▁tests	-617
▁change	-618
▁all	-619
▁repo	-620
▁Fix	-621
50	-622
22	-623
assimp	-624
ry	-625
>@	-626
▁8	-627
nce	-628
urity	-629
eat	-630
▁bu	-631
ich	-632
pack	-633
...	-634
>)</	-635
are	-636
eb	-637
▁Add	-638
▁6	-639
go	-640
────	-641
ll	-642
ink	-643
▁work	-644
90	-645
▁sp	-646
ord	-647
get	-648
▁app	-649
()	-650
48	-651
33	-652
nu	-653
coderabbitai	-654
▁po	-655
76	-656
arch	-657
dev	-658
ning	-659
blob	-660
atic	-661
ki	-662
error	-663
mix	-664
▁res	-665
▁was	-666
dded	-667
▁up	-668
▁In	-669
▁V	-670
ram	-671
initely	-672
ule	-673
▁so	-674
odel	-675
):	-676
70	-677
ak	-678
2/	-679
cloud	-680
ft	-681
ces	-682
pm	-683
press	-684
ize	-685
efinitely	-686
▁check	-687
ast	-688
illow	-689
read	-690
iv	-691
Typed	-692
▁j	-693
uth	-694
efinitelyTyped	-695
ility	-696
99	-697
▁You	-698
vent	-699
ollow	-700
repo	-701
fault	-702
ac	-703
ous	-704
▁contri	-705
.</	-706
EA	-707
ates	-708
▁using	-709
▁run	-710
▁le	-711
66	-712
▁should	-713
ery	-714
che	-715
▁]	-716
-0	-717
no	-718
lay	-719
amad	-720
avi	-721
▁pack	-722
▁Code	-723
ures	-724
git	-725
ignore	-726
typescript	-727
ption	-728
amp	-729
ition	-730
▁pull	-731
td	-732
▁some	-733
%2	-734
74	-735
De	-736
▁fun	-737
velo	-738
base	-739
ell	-740
▁Please	-741
▁If	-742
]]:	-743
DefinitelyTyped	-744
use	-745
ating	-746
▁inst	-747
▁support	-748
strong	-749
utom	-750
`.	-751
aw	-752
▁cont	-753
11	-754
▁error	-755
▁dis	-756
Con	-757
check	-758
pendency	-759
ME	-760
sing	-761
ator	-762
sd	-763
urn	-764
be	-765
cve	-766
cor	-767
77	-768
angu	-769
mentation	-770
1.	-771
▁out	-772
col	-773
list	-774
68	-775
site	-776
mitre	-777
cven	-778
main	-779
cvename	-780
ng	-781
▁Thanks	-782
▁typ	-783
gra	-784
▁1.	-785
▁need	-786
ggest	-787
▁update	-788
back	-789
12	-790
-29	-791
ake	-792
repomix	-793
rent	-794
▁hel	-795
40	-796
▁5	-797
▁no	-798
▁remo	-799
ved	-800
run	-801
▁one	-802
fter	-803
▁exp	-804
pre	-805
eme	-806
row	-807
turn	-808
38	-809
39	-810
▁spec	-811
atus	-812
Com	-813
▁ar	-814
az	-815
▁which	-816
bo	-817
cess	-818
▁please	-819
onent	-820
▁src	-821
▁follow	-822
clu	-823
60	-824
sel	-825
aster	-826
ON	-827
command	-828
▁pass	-829
20-	-830
tern	-831
ep	-832
▁files	-833
▁pre	-834
▁here	-835
▁now	-836
`,	-837
ese	-838
▁cre	-839
ense	-840
self	-841
www	-842
▁Ex	-843
▁Dependabot	-844
sdk	-845
▁upd	-846
-2020-	-847
anguage	-848
/21	-849
sonarcloud	-850
tf	-851
▁only	-852
theme	-853
▁has	-854
sit	-855
python	-856
Fix	-857
here	-858
quote	-859
tool	-860
lint	-861
▁return	-862
▁ignore	-863
soft	-864
icro	-865
▁fail	-866
▁like	-867
very	-868
ba	-869
69	-870
mis	-871
▁9	-872
32	-873
▁man	-874
********	-875
▁Con	-876
pyder	-877
pare	-878
file	-879
▁20	-880
ach	-881
▁issue	-882
▁about	-883
88	-884
icrosoft	-885
▁also	-886
ling	-887
▁don	-888
St	-889
▁close	-890
gu	-891
ample	-892
In	-893
ino	-894
ases	-895
path	-896
ish	-897
urrent	-898
EAD	-899
65	-900
af	-901
Ch	-902
▁go	-903
ings	-904
34	-905
▁It	-906
▁would	-907
ance	-908
cipy	-909
image	-910
▁---	-911
ner	-912
url	-913
000	-914
odule	-915
▁Wh	-916
▁str	-917
▁ke	-918
),	-919
ok	-920
api	-921
ocu	-922
)](	-923
curity	-924
30	-925
ted	-926
ations	-927
log	-928
abel	-929
▁set	-930
IN	-931
▁language	-932
▁Git	-933
plus	-934
cl	-935
▁tri	-936
ules	-937
npm	-938
▁contribut	-939
44	-940
▁build	-941
▁gener	-942
▁issues	-943
html	-944
▁does	-945
-2021	-946
ark	-947
du	-948
atib	-949
tree	-950
▁ext	-951
ecut	-952
ced	-953
erg	-954
ror	-955
▁min	-956
lat	-957
~~	-958
▁help	-959
sub	-960
-2021-29	-961
▁config	-962
▁over	-963
▁&	-964
vice	-965
ght	-966
vate	-967
vide	-968
))	-969
Hub	-970
indow	-971
__	-972
ice	-973
▁these	-974
▁used	-975
ines	-976
Request	-977
lear	-978
/16	-979
▁CI	-980
2.	-981
ql	-982
ans	-983
query	-984
eslint	-985
ange	-986
diff	-987
less	-988
▁function	-989
secre	-990
▁read	-991
▁Pro	-992
▁release	-993
mission	-994
http	-995
▁hand	-996
br	-997
▁2.	-998
▁case	-999
▁des	-1000
/7	-1001
do	-1002
80	-1003
merge	-1004
marp	-1005
67	-1006
plu	-1007
::	-1008
user	-1009
abl	-1010
▁than	-1011
irflow	-1012
▁reopen	-1013
▁added	-1014
compare	-1015
-2020-15	-1016
▁main	-1017
▁default	-1018
▁there	-1019
▁think	-1020
▁Update	-1021
formation	-1022
ashy	-1023
▁been	-1024
amadashy	-1025
aws	-1026
▁feat	-1027
SS	-1028
PI	-1029
data	-1030
auth	-1031
develo	-1032
common	-1033
57	-1034
▁per	-1035
▁after	-1036
▁yourself	-1037
ain	-1038
ook	-1039
LA	-1040
Rabbit	-1041
▁same	-1042
ension	-1043
▁![	-1044
▁dependency	-1045
▁ass	-1046
ranch	-1047
conf	-1048
▁J	-1049
json	-1050
mat	-1051
▁Co	-1052
model	-1053
search	-1054
ually	-1055
pk	-1056
▁rebase	-1057
net	-1058
me	-1059
sed	-1060
▁my	-1061
not	-1062
▁inclu	-1063
irst	-1064
▁GitHub	-1065
Qu	-1066
▁call	-1067
title	-1068
ays	-1069
▁just	-1070
bad	-1071
▁beh	-1072
▁mis	-1073
>,	-1074
▁may	-1075
▁sub	-1076
master	-1077
▁current	-1078
alidation	-1079
ys	-1080
51	-1081
ggestion	-1082
cla	-1083
▁sign	-1084
qui	-1085
▁list	-1086
package	-1087
/3	-1088
rect	-1089
link	-1090
iel	-1091
ptions	-1092
def	-1093
▁par	-1094
orker	-1095
php	-1096
now	-1097
express	-1098
set	-1099
ied	-1100
▁ref	-1101
)`	-1102
ath	-1103
umber	-1104
bc	-1105
wing	-1106
Pro	-1107
man	-1108
37	-1109
86	-1110
▁under	-1111
ea	-1112
ify	-1113
winget	-1114
ob	-1115
uto	-1116
▁val	-1117
flags	-1118
word	-1119
▁our	-1120
empl	-1121
▁make	-1122
map	-1123
ield	-1124
▁cor	-1125
time	-1126
▁following	-1127
▁stop	-1128
ence	-1129
load	-1130
RT	-1131
tlint	-1132
94	-1133
types	-1134
static	-1135
▁10	-1136
lect	-1137
grade	-1138
▁time	-1139
oog	-1140
▁autom	-1141
▁ac	-1142
/0	-1143
bf	-1144
▁other	-1145
oto	-1146
da	-1147
loc	-1148
ert	-1149
▁diff	-1150
alse	-1151
butor	-1152
pache	-1153
gger	-1154
yst	-1155
92	-1156
fo	-1157
▁back	-1158
▁information	-1159
87	-1160
▁reposit	-1161
ocumentation	-1162
pillow	-1163
secretlint	-1164
iki	-1165
keop	-1166
vy	-1167
roup	-1168
type	-1169
▁ra	-1170
lient	-1171
▁into	-1172
▁direct	-1173
igma	-1174
══	-1175
▁name	-1176
itional	-1177
commands	-1178
TE	-1179
berg	-1180
plugin	-1181
ble	-1182
ality	-1183
---	-1184
ound	-1185
ux	-1186
▁.	-1187
img	-1188
tools	-1189
novate	-1190
93	-1191
thing	-1192
indows	-1193
EADME	-1194
trino	-1195
des	-1196
renovate	-1197
5.	-1198
ight	-1199
oogle	-1200
ampl	-1201
98	-1202
rad	-1203
▁type	-1204
ystem	-1205
ince	-1206
cf	-1207
▁conf	-1208
node	-1209
▁what	-1210
coverage	-1211
);	-1212
true	-1213
yn	-1214
▁remove	-1215
▁em	-1216
RL	-1217
pri	-1218
/)	-1219
yamadashy	-1220
df	-1221
▁docs	-1222
▁get	-1223
▁int	-1224
-16	-1225
▁package	-1226
emplate	-1227
mp	-1228
by	-1229
component	-1230
52	-1231
leases	-1232
essage	-1233
▁block	-1234
▁ca	-1235
▁report	-1236
badges	-1237
rit	-1238
^^	-1239
▁see	-1240
ting	-1241
down	-1242
────────	-1243
▁ag	-1244
ost	-1245
▁/>	-1246
ython	-1247
47	-1248
vious	-1249
▁specific	-1250
ults	-1251
atibility	-1252
▁line	-1253
▁cons	-1254
▁[![	-1255
arning	-1256
203	-1257
▁part	-1258
ources	-1259
trans	-1260
Pillow	-1261
1</	-1262
▁We	-1263
gram	-1264
uct	-1265
▁API	-1266
vit	-1267
blockquote	-1268
▁([	-1269
avig	-1270
ics	-1271
ified	-1272
eedback	-1273
▁cl	-1274
rror	-1275
text	-1276
3/	-1277
3>	-1278
%3	-1279
ful	-1280
▁view	-1281
▁av	-1282
-4	-1283
▁PRs	-1284
nukeop	-1285
▁user	-1286
used	-1287
/5	-1288
airflow	-1289
pullRequest	-1290
anges	-1291
make	-1292
ginx	-1293
he	-1294
clear	-1295
vitest	-1296
suggestion	-1297
png	-1298
ari	-1299
▁workflow	-1300
igh	-1301
amples	-1302
pass	-1303
▁instead	-1304
dit	-1305
tainer	-1306
97	-1307
IP	-1308
Fixes	-1309
3.	-1310
▁sure	-1311
idence	-1312
▁bo	-1313
Add	-1314
module	-1315
▁upgrade	-1316
▁def	-1317
/8	-1318
action	-1319
▁creating	-1320
▁first	-1321
▁imple	-1322
rans	-1323
wiki	-1324
ware	-1325
bd	-1326
ribut	-1327
▁CodeRabbit	-1328
pdown	-1329
ns	-1330
ze	-1331
arhere	-1332
**:	-1333
microsoft	-1334
wn	-1335
SE	-1336
uld	-1337
tton	-1338
IB	-1339
▁could	-1340
bute	-1341
confidence	-1342
▁extension	-1343
Test	-1344
cker	-1345
vel	-1346
start	-1347
▁K	-1348
▁Al	-1349
ular	-1350
36	-1351
lated	-1352
ropdown	-1353
46	-1354
fore	-1355
react	-1356
->	-1357
jor	-1358
config	-1359
PU	-1360
▁long	-1361
avigation	-1362
scipy	-1363
cel	-1364
nuclear	-1365
uration	-1366
gres	-1367
▁before	-1368
72	-1369
ID	-1370
trivy	-1371
31	-1372
91	-1373
ses	-1374
ecurity	-1375
px	-1376
uist	-1377
mc	-1378
book	-1379
adge	-1380
dropdown	-1381
isting	-1382
ward	-1383
▁git	-1384
95	-1385
cd	-1386
table	-1387
line	-1388
prec	-1389
▁behavi	-1390
▁mod	-1391
developer	-1392
gets	-1393
▁minor	-1394
ored	-1395
issue	-1396
eline	-1397
lace	-1398
server	-1399
▁notes	-1400
tter	-1401
abled	-1402
vim	-1403
cept	-1404
icense	-1405
new	-1406
pe	-1407
▁false	-1408
▁log	-1409
▁merg	-1410
>.</	-1411
▁For	-1412
▁show	-1413
AN	-1414
cb	-1415
▁"",	-1416
&#	-1417
rol	-1418
04	-1419
07	-1420
]</	-1421
1.1	-1422
▁New	-1423
ummary	-1424
▁how	-1425
wid	-1426
ider	-1427
▁he	-1428
▁1.1	-1429
▁tr	-1430
ccess	-1431
latest	-1432
Press	-1433
▁reg	-1434
thod	-1435
▁am	-1436
▁them	-1437
/4	-1438
oid	-1439
▁every	-1440
num	-1441
unless	-1442
security	-1443
▁trigger	-1444
ipeline	-1445
▁correct	-1446
5</	-1447
▁act	-1448
▁recre	-1449
ric	-1450
work	-1451
▁repository	-1452
Ex	-1453
▁tra	-1454
ordPress	-1455
lines	-1456
▁Fixes	-1457
Sh	-1458
06	-1459
▁@@	-1460
agent	-1461
ding	-1462
cription	-1463
▁head	-1464
quired	-1465
author	-1466
')	-1467
cause	-1468
ms	-1469
▁appro	-1470
ove	-1471
▁branch	-1472
linguist	-1473
2025	-1474
▁message	-1475
&#8	-1476
resources	-1477
navigation	-1478
azu	-1479
203;	-1480
&#8203;	-1481
▁},	-1482
project	-1483
ne	-1484
▁because	-1485
▁loc	-1486
ae	-1487
`](	-1488
FF	-1489
coun	-1490
▁updated	-1491
erence	-1492
perf	-1493
▁full	-1494
otocol	-1495
▁still	-1496
---|	-1497
ug	-1498
▁open	-1499
▁gu	-1500
enberg	-1501
▁behavior	-1502
ined	-1503
mark	-1504
▁[@	-1505
inter	-1506
0.	-1507
face	-1508
spyder	-1509
▁want	-1510
exe	-1511
▁manually	-1512
utenberg	-1513
kind	-1514
▁chang	-1515
▁commits	-1516
les	-1517
lict	-1518
Status	-1519
▁format	-1520
▁Coverage	-1521
****************	-1522
fd	-1523
teg	-1524
▁option	-1525
rough	-1526
▁resol	-1527
▁Test	-1528
▁made	-1529
▁project	-1530
▁rep	-1531
▁fla	-1532
▁Merge	-1533
None	-1534
sonarsource	-1535
urllib	-1536
▁<!---	-1537
ever	-1538
perftools	-1539
▁contribution	-1540
▁data	-1541
context	-1542
▁details	-1543
:\	-1544
-9	-1545
62	-1546
84	-1547
/9	-1548
EN	-1549
▁const	-1550
▁know	-1551
pad	-1552
tag	-1553
▁Files	-1554
ky	-1555
++	-1556
▁impro	-1557
▁major	-1558
ready	-1559
renovatebot	-1560
ron	-1561
▁where	-1562
play	-1563
gener	-1564
▁mode	-1565
pages	-1566
apache	-1567
▁inter	-1568
bb	-1569
0000	-1570
page	-1571
▁Thank	-1572
google	-1573
ible	-1574
▁page	-1575
▁find	-1576
ervice	-1577
postgres	-1578
ough	-1579
round	-1580
unity	-1581
flag	-1582
▁good	-1583
83	-1584
peri	-1585
▁URL	-1586
▁Request	-1587
▁Bum	-1588
▁fa	-1589
ternal	-1590
Tensor	-1591
Id	-1592
0.0	-1593
▁Execut	-1594
To	-1595
ream	-1596
▁coverage	-1597
09	-1598
web	-1599
tting	-1600
nb	-1601
>)	-1602
Le	-1603
71	-1604
ava	-1605
▁att	-1606
▁path	-1607
val	-1608
▁License	-1609
ise	-1610
files	-1611
▁col	-1612
ick	-1613
iew	-1614
▁ob	-1615
▁comments	-1616
mental	-1617
▁packages	-1618
tach	-1619
▁allow	-1620
right	-1621
▁they	-1622
off	-1623
widgets	-1624
Type	-1625
▁resp	-1626
licit	-1627
ories	-1628
▁[<	-1629
▁required	-1630
pkg	-1631
▁im	-1632
▁look	-1633
uber	-1634
request	-1635
gination	-1636
cer	-1637
▁import	-1638
we	-1639
▁process	-1640
▁✅	-1641
valid	-1642
/6	-1643
41	-1644
▁HT	-1645
etric	-1646
otepad	-1647
deep	-1648
protocol	-1649
89	-1650
ribute	-1651
/_	-1652
▁lines	-1653
▁Added	-1654
▁exit	-1655
aliz	-1656
lugin	-1657
▁wor	-1658
LO	-1659
Data	-1660
▁None	-1661
▁model	-1662
ateg	-1663
pose	-1664
▁fixes	-1665
the	-1666
ues	-1667
▁What	-1668
▁then	-1669
ray	-1670
▁method	-1671
pagination	-1672
▁options	-1673
checkout	-1674
TI	-1675
zz	-1676
▁returned	-1677
lean	-1678
4.	-1679
ems	-1680
sets	-1681
gine	-1682
ja	-1683
2</	-1684
plo	-1685
tests	-1686
▁adding	-1687
cake	-1688
▁####	-1689
7.	-1690
ased	-1691
▁rules	-1692
mind	-1693
free	-1694
▁updates	-1695
▁source	-1696
▁existing	-1697
cakephp	-1698
transmission	-1699
modelcontext	-1700
cord	-1701
▁See	-1702
▁Changes	-1703
ML	-1704
ision	-1705
ability	-1706
sv	-1707
:</	-1708
▁value	-1709
ia	-1710
expressjs	-1711
aa	-1712
licy	-1713
alk	-1714
ities	-1715
▁end	-1716
ected	-1717
▁start	-1718
erent	-1719
deepmind	-1720
rib	-1721
▁auto	-1722
RIB	-1723
sure	-1724
ulner	-1725
▁already	-1726
▁related	-1727
packages	-1728
▁chore	-1729
▁proble	-1730
-2021-295	-1731
▁their	-1732
fb	-1733
yml	-1734
ask	-1735
▁Pull	-1736
its	-1737
attern	-1738
▁missing	-1739
▁[@&#8203;	-1740
db	-1741
Flow	-1742
date	-1743
▁description	-1744
▁i	-1745
ctor	-1746
1>	-1747
▁better	-1748
▁_	-1749
ields	-1750
ocial	-1751
▁documentation	-1752
bed	-1753
uture	-1754
▁vi	-1755
nbsp	-1756
quire	-1757
pdates	-1758
nginx	-1759
▁Check	-1760
▁proper	-1761
▁configuration	-1762
▁qu	-1763
▁ren	-1764
quase	-1765
▁comple	-1766
▁conflict	-1767
00%	-1768
uss	-1769
ici	-1770
head	-1771
fe	-1772
dis	-1773
▁input	-1774
▁$	-1775
▁sc	-1776
▁passes	-1777
▁edit	-1778
lish	-1779
▁trans	-1780
wit	-1781
my	-1782
rake	-1783
attach	-1784
ty	-1785
▁'')	-1786
gutenberg	-1787
▁wid	-1788
▁generate	-1789
▁vari	-1790
any	-1791
ual	-1792
▁3.	-1793
▁![](	-1794
idelines	-1795
social	-1796
cy	-1797
hot	-1798
▁string	-1799
fc	-1800
spec	-1801
▁Tensor	-1802
Make	-1803
ical	-1804
ivity	-1805
quasecurity	-1806
ameter	-1807
about	-1808
▁submit	-1809
mend	-1810
dc	-1811
sli	-1812
ude	-1813
▁patch	-1814
▁result	-1815
()`	-1816
▁An	-1817
emory	-1818
▁doesn	-1819
▁lib	-1820
▁squ	-1821
▁future	-1822
▁without	-1823
▁previous	-1824
research	-1825
▁keras	-1826
▁wr	-1827
andB	-1828
.0.	-1829
andBrake	-1830
AA	-1831
ie	-1832
tact	-1833
-->	-1834
▁install	-1835
option	-1836
▁its	-1837
▁way	-1838
▁since	-1839
▁feedback	-1840
▁squash	-1841
03	-1842
ized	-1843
▁mak	-1844
▁Se	-1845
releases	-1846
▁alt	-1847
assets	-1848
Th	-1849
Program	-1850
ager	-1851
▁key	-1852
▁width	-1853
▁automatic	-1854
▁commenting	-1855
▁context	-1856
▁example	-1857
ear	-1858
AR	-1859
▁],	-1860
runs	-1861
sign	-1862
DE	-1863
wh	-1864
alle	-1865
▁non	-1866
eeded	-1867
button	-1868
61	-1869
05	-1870
▁auth	-1871
gperftools	-1872
Commit	-1873
passed	-1874
inition	-1875
ames	-1876
ecess	-1877
ustom	-1878
azure	-1879
OR	-1880
slim	-1881
▁To	-1882
CON	-1883
java	-1884
Par	-1885
▁scipy	-1886
▁Change	-1887
template	-1888
HE	-1889
/?	-1890
▁implementation	-1891
▁keep	-1892
▁There	-1893
alloc	-1894
8.	-1895
42	-1896
81	-1897
▁cancel	-1898
autom	-1899
▁class	-1900
docker	-1901
os	-1902
tra	-1903
▁Im	-1904
▁features	-1905
raph	-1906
arrow	-1907
▁each	-1908
Dev	-1909
ilter	-1910
!!	-1911
,0	-1912
ason	-1913
▁link	-1914
ST	-1915
pos	-1916
▁again	-1917
▁label	-1918
82	-1919
6</	-1920
notepad	-1921
Quality	-1922
▁address	-1923
aly	-1924
reak	-1925
▁note	-1926
▁resolve	-1927
75	-1928
▁included	-1929
perimental	-1930
attachments	-1931
ui	-1932
▁being	-1933
▁So	-1934
▁content	-1935
▁//	-1936
erenc	-1937
01	-1938
.0</	-1939
erts	-1940
process	-1941
-08	-1942
▁state	-1943
▁How	-1944
▁56	-1945
>]</	-1946
dependency	-1947
▁[`	-1948
▁lic	-1949
wordpress	-1950
],	-1951
ING	-1952
▁Executable	-1953
cted	-1954
group	-1955
▁Un	-1956
▁different	-1957
85	-1958
MP	-1959
~~~~	-1960
ilt	-1961
board	-1962
▁results	-1963
IT	-1964
▁com	-1965
compatibility	-1966
ken	-1967
▁title	-1968
Comp	-1969
babel	-1970
ush	-1971
▁explicit	-1972
▁recreate	-1973
▁argu	-1974
/20	-1975
//]:	-1976
nmap	-1977
▁[//]:	-1978
ade	-1979
ilities	-1980
box	-1981
cket	-1982
azuki	-1983
ublish	-1984
▁Windows	-1985
amada	-1986
35	-1987
▁tool	-1988
▁Python	-1989
▁actions	-1990
automerge	-1991
▁x	-1992
resh	-1993
erver	-1994
3.1	-1995
iag	-1996
uplic	-1997
%)`	-1998
rodu	-1999
▁dete	-2000
cm	-2001
▁match	-2002
App	-2003
tegr	-2004
▁commands	-2005
.`	-2006
Kazuki	-2007
Yamada	-2008
gging	-2009
▁"2025	-2010
▁above	-2011
inue	-2012
README	-2013
▁changed	-2014
UT	-2015
▁mo	-2016
ative	-2017
▁No	-2018
▁#16	-2019
▁Release	-2020
AC	-2021
ren	-2022
loat	-2023
▁through	-2024
6.	-2025
HQ	-2026
▁post	-2027
ecessary	-2028
shark	-2029
ireshark	-2030
▁high	-2031
▁handle	-2032
ors	-2033
▁summary	-2034
graph	-2035
Service	-2036
▁`.	-2037
▁did	-2038
sigma	-2039
/10	-2040
ffer	-2041
════	-2042
assist	-2043
feat	-2044
stand	-2045
Release	-2046
▁README	-2047
RE	-2048
▁such	-2049
precated	-2050
▁output	-2051
▁contain	-2052
-1	-2053
eng	-2054
orts	-2055
istribut	-2056
▁running	-2057
components	-2058
inux	-2059
---|---|	-2060
Error	-2061
ik	-2062
▁improve	-2063
fix	-2064
udio	-2065
/2	-2066
Res	-2067
ose	-2068
▁number	-2069
▁—	-2070
umns	-2071
▁Mis	-2072
ializ	-2073
pendencies	-2074
cli	-2075
▁ad	-2076
cing	-2077
iler	-2078
▁consider	-2079
▁2025	-2080
igmaHQ	-2081
▁provide	-2082
sql	-2083
▁very	-2084
ourced	-2085
ification	-2086
▁mult	-2087
riting	-2088
Str	-2089
wners	-2090
▁merged	-2091
Additional	-2092
▁All	-2093
WordPress	-2094
0</	-2095
:**	-2096
▁avail	-2097
▁suggest	-2098
▁why	-2099
kn	-2100
▁logic	-2101
Sourced	-2102
radarhere	-2103
LE	-2104
▁pr	-2105
community	-2106
GE	-2107
▁St	-2108
ives	-2109
ptim	-2110
class	-2111
▁As	-2112
▁thanks	-2113
▁contributing	-2114
utils	-2115
video	-2116
45	-2117
▁size	-2118
▁needed	-2119
▁base	-2120
▁usage	-2121
▁plugin	-2122
ract	-2123
▁respon	-2124
.**	-2125
Dependabot	-2126
File	-2127
deps	-2128
generated	-2129
aquasecurity	-2130
02	-2131
stru	-2132
▁--->	-2133
▁down	-2134
▁include	-2135
LI	-2136
bug	-2137
lua	-2138
oss	-2139
xy	-2140
FI	-2141
event	-2142
▁conflicts	-2143
lete	-2144
▁lat	-2145
client	-2146
>:	-2147
▁loo	-2148
AS	-2149
▁64	-2150
▁copy	-2151
▁provi	-2152
abilities	-2153
ints	-2154
")	-2155
desc	-2156
Im	-2157
count	-2158
▁fixed	-2159
defined	-2160
▁perform	-2161
just	-2162
-2020-1520	-2163
ving	-2164
▁even	-2165
-2020-1519	-2166
▁Badge	-2167
▁feature	-2168
▁types	-2169
96	-2170
^^^^	-2171
sers	-2172
▁limit	-2173
ross	-2174
▁HTML	-2175
▁pref	-2176
output	-2177
▁passed	-2178
OS	-2179
▁#1	-2180
▁00	-2181
▁web	-2182
8/	-2183
arm	-2184
ention	-2185
▁right	-2186
▁failures	-2187
▁el	-2188
erences	-2189
▁simp	-2190
>.	-2191
It	-2192
▁0,	-2193
move	-2194
cpp	-2195
▁via	-2196
policy	-2197
▁automatically	-2198
ization	-2199
OP	-2200
rep	-2201
▁maintain	-2202
wer	-2203
-3	-2204
fra	-2205
kip	-2206
▁try	-2207
Get	-2208
▁...	-2209
-2	-2210
▁require	-2211
zure	-2212
parse	-2213
ape	-2214
▁looks	-2215
unc	-2216
ublic	-2217
▁available	-2218
butors	-2219
▁too	-2220
▁users	-2221
▁understand	-2222
tax	-2223
dash	-2224
ured	-2225
4-	-2226
7</	-2227
▁Report	-2228
▁Review	-2229
▁were	-2230
hel	-2231
Worker	-2232
▁warning	-2233
pkgs	-2234
▁fin	-2235
Files	-2236
columns	-2237
▁works	-2238
▁text	-2239
sec	-2240
▁oper	-2241
▁well	-2242
▁reason	-2243
/29	-2244
hud	-2245
ploy	-2246
▁)	-2247
▁won	-2248
cmake	-2249
stall	-2250
default	-2251
▁CLA	-2252
%27	-2253
ways	-2254
▁below	-2255
▁built	-2256
ops	-2257
▁21	-2258
yntax	-2259
▁command	-2260
▁might	-2261
▁Run	-2262
▁En	-2263
▁Su	-2264
▁ent	-2265
HandBrake	-2266
IA	-2267
odb	-2268
Date	-2269
▁bug	-2270
4</	-2271
win	-2272
▁off	-2273
▁Bump	-2274
▁script	-2275
Mv	-2276
▁rad	-2277
rst	-2278
ho	-2279
ier	-2280
kit	-2281
▁Ag	-2282
▁true	-2283
LL	-2284
▁module	-2285
AT	-2286
roid	-2287
cache	-2288
▁pres	-2289
▁Error	-2290
▁tw	-2291
samples	-2292
▁Cre	-2293
ditions	-2294
3</	-2295
plugins	-2296
alys	-2297
▁develo	-2298
▁ensure	-2299
uring	-2300
alysis	-2301
/73	-2302
▁Do	-2303
hand	-2304
▁due	-2305
mote	-2306
▁Also	-2307
mitted	-2308
xml	-2309
▁init	-2310
pty	-2311
▁order	-2312
ZX	-2313
cuss	-2314
▁hap	-2315
▁security	-2316
',	-2317
▁directory	-2318
▁conditions	-2319
eth	-2320
let	-2321
ves	-2322
palle	-2323
▁char	-2324
pallets	-2325
ount	-2326
▁Iss	-2327
▁who	-2328
▁ask	-2329
efore	-2330
wireshark	-2331
inodb	-2332
eg	-2333
xp	-2334
ssl	-2335
next	-2336
orch	-2337
string	-2338
▁parameter	-2339
▁submitting	-2340
▁Sh	-2341
▁section	-2342
rt	-2343
ngx	-2344
pref	-2345
▁And	-2346
▁lay	-2347
▁4.	-2348
▁ide	-2349
▁raw	-2350
structions	-2351
/#	-2352
bers	-2353
Validation	-2354
Commits	-2355
▁Comm	-2356
gn	-2357
format	-2358
▁introdu	-2359
flare	-2360
▁rele	-2361
ables	-2362
9</	-2363
tsx	-2364
▁radarhere	-2365
eel	-2366
▁few	-2367
▁adds	-2368
▁compatibility	-2369
aca	-2370
▁spyder	-2371
▁Use	-2372
200	-2373
▁license	-2374
lain	-2375
▁poss	-2376
▁while	-2377
ector	-2378
yle	-2379
igin	-2380
minim	-2381
▁Contri	-2382
▁releases	-2383
opa	-2384
uzz	-2385
▁63	-2386
">#7	-2387
▁both	-2388
Change	-2389
ffect	-2390
point	-2391
wingetbot	-2392
mini	-2393
irror	-2394
posts	-2395
alyt	-2396
root	-2397
vert	-2398
ingle	-2399
alytics	-2400
ulnerabilities	-2401
NT	-2402
reat	-2403
shields	-2404
aries	-2405
View	-2406
/23	-2407
This	-2408
viron	-2409
▁failed	-2410
────────────────	-2411
lab	-2412
metric	-2413
▁seems	-2414
▁multip	-2415
▁disable	-2416
warning	-2417
▁really	-2418
-8	-2419
ym	-2420
▁bot	-2421
▁next	-2422
▁removed	-2423
▁checks	-2424
`)	-2425
ax	-2426
car	-2427
direct	-2428
develop	-2429
▁undefined	-2430
anged	-2431
ression	-2432
CE	-2433
dat	-2434
00%>	-2435
▁else	-2436
▁execut	-2437
▁Note	-2438
▁prevent	-2439
prove	-2440
lock	-2441
otlin	-2442
engine	-2443
ucture	-2444
inks	-2445
PP	-2446
nx	-2447
of	-2448
▁Pipeline	-2449
ha	-2450
Loc	-2451
Run	-2452
kze	-2453
kzeug	-2454
▁place	-2455
cal	-2456
ync	-2457
▁sm	-2458
light	-2459
OT	-2460
▁single	-2461
side	-2462
ifact	-2463
▁index	-2464
▁closed	-2465
▁omitted	-2466
ength	-2467
▁object	-2468
8</	-2469
▁free	-2470
parator	-2471
▁distribut	-2472
DA	-2473
og	-2474
quot	-2475
▁Gate	-2476
lant	-2477
▁memory	-2478
size	-2479
lement	-2480
▁break	-2481
▁valid	-2482
▁problem	-2483
ooks	-2484
olut	-2485
CH	-2486
.000	-2487
▁15	-2488
numpy	-2489
▁avoid	-2490
ccur	-2491
dent	-2492
▁[08	-2493
pdated	-2494
atterns	-2495
iled	-2496
tegration	-2497
ynam	-2498
▁color	-2499
▁applic	-2500
ials	-2501
part	-2502
Users	-2503
▁clean	-2504
▁previously	-2505
und	-2506
▁gram	-2507
arp	-2508
▁explicitly	-2509
cond	-2510
▁skip	-2511
▁those	-2512
▁Fixed	-2513
▁apply	-2514
uch	-2515
▁->	-2516
ersion	-2517
vis	-2518
▁But	-2519
=======	-2520
Bot	-2521
tack	-2522
▁disabled	-2523
.0.0	-2524
pped	-2525
▁ver	-2526
▁access	-2527
UI	-2528
come	-2529
Bu	-2530
sm	-2531
cent	-2532
▁[],	-2533
ertific	-2534
bi	-2535
▁│	-2536
Check	-2537
other	-2538
▁once	-2539
▁necessary	-2540
pace	-2541
YX	-2542
experimental	-2543
rop	-2544
linux	-2545
▁status	-2546
▁handling	-2547
elf	-2548
ices	-2549
▁JS	-2550
▁Typ	-2551
factor	-2552
▁expect	-2553
info	-2554
▁quest	-2555
▁consist	-2556
ler	-2557
▁Diff	-2558
amed	-2559
release	-2560
embed	-2561
usable	-2562
ey	-2563
Badge	-2564
aving	-2565
ended	-2566
▁something	-2567
01.	-2568
gal	-2569
▁65	-2570
▁unit	-2571
more	-2572
aging	-2573
ately	-2574
▁reviewers	-2575
250	-2576
▁71	-2577
preview	-2578
▁functions	-2579
ereum	-2580
▁Lines	-2581
parlant	-2582
▁grammar	-2583
CLA	-2584
etch	-2585
with	-2586
ither	-2587
▁two	-2588
▁system	-2589
▁Read	-2590
▁mean	-2591
atible	-2592
▁errors	-2593
▁render	-2594
chr	-2595
bra	-2596
ccor	-2597
▁tag	-2598
werkzeug	-2599
▁argument	-2600
▁internal	-2601
▁?	-2602
nel	-2603
que	-2604
▁[0	-2605
chem	-2606
▁z	-2607
▁though	-2608
ventions	-2609
ority	-2610
listic	-2611
twe	-2612
etc	-2613
ffice	-2614
/@	-2615
▁Hi	-2616
input	-2617
▁That	-2618
TensorRT	-2619
ER	-2620
adata	-2621
audio	-2622
guide	-2623
▁github	-2624
▁happen	-2625
▁signed	-2626
PR	-2627
Per	-2628
▁UI	-2629
Contri	-2630
▁origin	-2631
ips	-2632
asures	-2633
ecy	-2634
rypt	-2635
▁done	-2636
allery	-2637
ttings	-2638
Statuses	-2639
issueStatuses	-2640
▁61	-2641
▁te	-2642
Level	-2643
▁longer	-2644
key	-2645
▁mark	-2646
▁track	-2647
(`	-2648
ru	-2649
618	-2650
bre	-2651
enu	-2652
arget	-2653
quick	-2654
jo	-2655
▁field	-2656
▁100	-2657
lements	-2658
TP	-2659
-07	-2660
-79	-2661
▁accept	-2662
▁template	-2663
mod	-2664
▁pa	-2665
where	-2666
Owners	-2667
▁Preview	-2668
▁discuss	-2669
ably	-2670
stylistic	-2671
authored	-2672
facebook	-2673
irm	-2674
dist	-2675
▁Clo	-2676
▁Have	-2677
▁uses	-2678
▁query	-2679
▁multiple	-2680
▁std	-2681
unction	-2682
▁values	-2683
RIBs	-2684
▁mac	-2685
ground	-2686
▁select	-2687
Of	-2688
/17	-2689
VID	-2690
▁11	-2691
lang	-2692
ilest	-2693
▁found	-2694
▁needs	-2695
▁X	-2696
▁self	-2697
gallery	-2698
HEAD	-2699
creens	-2700
separator	-2701
▁possible	-2702
atar	-2703
char	-2704
▁inv	-2705
0]	-2706
cho	-2707
pop	-2708
moby	-2709
▁take	-2710
Publish	-2711
reusable	-2712
▁merging	-2713
▁generated	-2714
-6	-2715
▁Rep	-2716
witch	-2717
▁master	-2718
▁specified	-2719
EIP	-2720
-2019	-2721
▁Other	-2722
▁always	-2723
meta	-2724
graphy	-2725
Py	-2726
/24	-2727
aio	-2728
▁1.0	-2729
VIDIA	-2730
▁File	-2731
▁environ	-2732
▁deprecated	-2733
erging	-2734
▁group	-2735
▁requested	-2736
▁real	-2737
▁thread	-2738
▁reviews	-2739
ully	-2740
avatar	-2741
pullquote	-2742
▁dependencies	-2743
pu	-2744
▁unt	-2745
minimist	-2746
▁small	-2747
>[	-2748
▁!!	-2749
▁Not	-2750
otent	-2751
1">	-2752
For	-2753
vered	-2754
▁closing	-2755
▁TensorFlow	-2756
ANGE	-2757
▁pri	-2758
cha	-2759
▁0.	-2760
▁npm	-2761
▁rule	-2762
workflow	-2763
==========	-2764
gt	-2765
kt	-2766
gged	-2767
436	-2768
Local	-2769
etadata	-2770
▁performance	-2771
▁separ	-2772
ilestone	-2773
▁website	-2774
SSL	-2775
▁#7	-2776
doba	-2777
▁Att	-2778
▁edits	-2779
ccordoba	-2780
CMake	-2781
▁Open	-2782
uk	-2783
lection	-2784
▁let	-2785
optional	-2786
▁actually	-2787
ait	-2788
lied	-2789
clo	-2790
trunc	-2791
▁1.15	-2792
creenshot	-2793
definition	-2794
='	-2795
add	-2796
iagram	-2797
writing	-2798
ertificate	-2799
sco	-2800
gemini	-2801
▁versions	-2802
CodeRabbit	-2803
▁correctly	-2804
wb	-2805
van	-2806
▁When	-2807
▁builds	-2808
Ops	-2809
lex	-2810
ube	-2811
media	-2812
number	-2813
▁cases	-2814
jh	-2815
lob	-2816
usp	-2817
isit	-2818
▁eas	-2819
▁give	-2820
▁write	-2821
ox	-2822
('	-2823
9.	-2824
▁[08/0	-2825
▁control	-2826
Dis	-2827
▁etc	-2828
categ	-2829
>`	-2830
last	-2831
▁server	-2832
-49	-2833
▁2.0	-2834
manager	-2835
▁Spyder	-2836
▁syntax	-2837
projects	-2838
▁keyword	-2839
dom	-2840
▁90	-2841
▁job	-2842
known	-2843
▁functionality	-2844
usr	-2845
ilar	-2846
struct	-2847
▁testing	-2848
/-	-2849
stack	-2850
▁null	-2851
▁email	-2852
MA	-2853
exp	-2854
icha	-2855
/49	-2856
svg	-2857
12]:	-2858
brow	-2859
inclu	-2860
imilar	-2861
En	-2862
-11	-2863
▁./	-2864
▁#21	-2865
▁makes	-2866
▁num	-2867
Script	-2868
Component	-2869
libraries	-2870
pi	-2871
▁own	-2872
gment	-2873
ichael	-2874
/90	-2875
arn	-2876
▁__	-2877
▁fill	-2878
▁much	-2879
AppData	-2880
▁"2025-08	-2881
mic	-2882
lick	-2883
▁point	-2884
Days	-2885
ouch	-2886
▁must	-2887
▁during	-2888
▁bump	-2889
worker	-2890
ORT	-2891
▁filter	-2892
▁%	-2893
LOG	-2894
aml	-2895
thers	-2896
▁around	-2897
iod	-2898
ategy	-2899
ynamic	-2900
trinodb	-2901
ndle	-2902
ially	-2903
ularity	-2904
▁either	-2905
ders	-2906
▁2.1	-2907
▁library	-2908
▁incre	-2909
install	-2910
▁things	-2911
▁setting	-2912
▁54	-2913
`)](	-2914
eras	-2915
▁[(`	-2916
usted	-2917
parser	-2918
1,	-2919
gx	-2920
quant	-2921
priority	-2922
▁another	-2923
vc	-2924
100	-2925
Cont	-2926
white	-2927
claude	-2928
▁WordPress	-2929
▁implement	-2930
job	-2931
TRIB	-2932
▁supp	-2933
icious	-2934
▁location	-2935
rest	-2936
▁ach	-2937
▁changelog	-2938
can	-2939
TION	-2940
▁bit	-2941
▁validation	-2942
EIPs	-2943
▁#18	-2944
share	-2945
▁last	-2946
▁going	-2947
▁buffer	-2948
lan	-2949
OPEN	-2950
entry	-2951
▁directly	-2952
▁(+	-2953
ouble	-2954
▁achie	-2955
ats	-2956
▁(-0	-2957
▁until	-2958
▁currently	-2959
783	-2960
sam	-2961
▁Follow	-2962
▁partic	-2963
▁display	-2964
va	-2965
▁***	-2966
float	-2967
▁runtime	-2968
Cade	-2969
tween	-2970
▁View	-2971
▁sample	-2972
▁between	-2973
truncated	-2974
ichaelCade	-2975
▁#####	-2976
▁modified	-2977
▁provided	-2978
979	-2979
.1</	-2980
crypt	-2981
Vector	-2982
ocument	-2983
▁GPU	-2984
reen	-2985
esome	-2986
▁flag	-2987
otation	-2988
▁Changelog	-2989
nou	-2990
▁EIP	-2991
TRIBUT	-2992
DevOps	-2993
Edit	-2994
roll	-2995
▁THE	-2996
uding	-2997
TRIBUTING	-2998
▁component	-2999
▁suggested	-3000
tensor	-3001
kg	-3002
ibility	-3003
leted	-3004
DaysOf	-3005
popularity	-3006
DaysOfDevOps	-3007
popularityLevel	-3008
See	-3009
▁53	-3010
ency	-3011
▁Summary	-3012
▁interface	-3013
Kon	-3014
quence	-3015
▁across	-3016
▁Improve	-3017
Sp	-3018
Azure	-3019
▁client	-3020
▁forward	-3021
validator	-3022
chema	-3023
▁Once	-3024
▁guide	-3025
▁requests	-3026
-2021-2954	-3027
2.1	-3028
▁==	-3029
▁`--	-3030
▁tensor	-3031
▁community	-3032
spa	-3033
vant	-3034
▁ind	-3035
▁tim	-3036
▁event	-3037
doc	-3038
▁Ac	-3039
▁art	-3040
▁based	-3041
Kontact	-3042
▁viewable	-3043
windows	-3044
▁present	-3045
ypo	-3046
▁[#	-3047
▁ngx	-3048
▁variable	-3049
tx	-3050
Col	-3051
>...	-3052
ower	-3053
yaml	-3054
▁names	-3055
▁others	-3056
LEA	-3057
cience	-3058
backend	-3059
kal	-3060
ons	-3061
▁96	-3062
▁impa	-3063
arge	-3064
AB	-3065
gments	-3066
kotlin	-3067
runtime	-3068
JS	-3069
▁la	-3070
ifest	-3071
▁local	-3072
▁achieve	-3073
▁explain	-3074
uspicious	-3075
▁everyone	-3076
validation	-3077
OM	-3078
▁table	-3079
cluding	-3080
DI	-3081
▁DT	-3082
System	-3083
▁making	-3084
▁Updates	-3085
▁develop	-3086
.3.	-3087
ins	-3088
▁Pass	-3089
▁most	-3090
▁Remove	-3091
▁overwriting	-3092
YW	-3093
▁boo	-3094
▁heap	-3095
elcome	-3096
▁Bumps	-3097
▁empty	-3098
▁covered	-3099
Un	-3100
dt	-3101
score	-3102
raw	-3103
▁rather	-3104
container	-3105
▁contributors	-3106
▁repositories	-3107
ET	-3108
na	-3109
Base	-3110
2,	-3111
vino	-3112
▁Part	-3113
▁Your	-3114
nection	-3115
▁questions	-3116
lif	-3117
Pack	-3118
istory	-3119
▁Issues	-3120
Programs	-3121
1&	-3122
Fixed	-3123
▁useful	-3124
▁android	-3125
GF	-3126
▁#24	-3127
ffici	-3128
▁Updated	-3129
han	-3130
▁Can	-3131
bably	-3132
outine	-3133
▁array	-3134
▁public	-3135
▁additional	-3136
bar	-3137
rer	-3138
▁custom	-3139
▁:)	-3140
▁Gu	-3141
▁br	-3142
▁Det	-3143
coding	-3144
dashboard	-3145
▁environment	-3146
/.	-3147
▁8.	-3148
cast	-3149
cover	-3150
▁able	-3151
▁coder	-3152
ench	-3153
▁enabled	-3154
support	-3155
▁Qu	-3156
chris	-3157
▁tensorflow	-3158
▁automerging	-3159
▁Cons	-3160
▁alter	-3161
▁doing	-3162
▁Branch	-3163
-2022	-3164
Sparse	-3165
▁flaky	-3166
▁supported	-3167
hu	-3168
IMP	-3169
ero	-3170
▁(`	-3171
▁http	-3172
kalarm	-3173
router	-3174
▁latest	-3175
2)	-3176
▁pe	-3177
-2019-	-3178
▁optim	-3179
▁contains	-3180
▁original	-3181
▁coderabbit	-3182
igr	-3183
LEASE	-3184
("	-3185
_0	-3186
▁-1	-3187
▁Is	-3188
▁Hel	-3189
▁height	-3190
-2021-2953	-3191
▁instructions	-3192
.)	-3193
vie	-3194
▁82.	-3195
▁Microsoft	-3196
CU	-3197
▁ready	-3198
▁Process	-3199
CK	-3200
gq	-3201
▁div	-3202
lation	-3203
▁button	-3204
ked	-3205
fetch	-3206
▁many	-3207
SigmaHQ	-3208
▁cannot	-3209
Shell	-3210
Po	-3211
▁Core	-3212
witter	-3213
Codecov	-3214
▁create	-3215
PE	-3216
▁ste	-3217
▁push	-3218
agraph	-3219
▁problems	-3220
lt	-3221
▁logs	-3222
dition	-3223
▁labels	-3224
▁had	-3225
numbers	-3226
results	-3227
updates	-3228
▁Be	-3229
▁Res	-3230
CONFI	-3231
activity	-3232
0.1	-3233
ian	-3234
Open	-3235
ours	-3236
▁doc	-3237
links	-3238
signed	-3239
▁duplic	-3240
postgresql	-3241
QL	-3242
▁1,	-3243
▁nginx	-3244
▁style	-3245
Se	-3246
qsv	-3247
sole	-3248
ename	-3249
▁recomm	-3250
▁express	-3251
AI	-3252
orm	-3253
▁TF	-3254
▁best	-3255
▁recreating	-3256
8-9	-3257
Name	-3258
ificant	-3259
▁expected	-3260
ialization	-3261
4)	-3262
ots	-3263
▁yet	-3264
▁Feat	-3265
▁Some	-3266
▁deta	-3267
Security	-3268
continue	-3269
cie	-3270
mem	-3271
void	-3272
▁including	-3273
txt	-3274
▁Make	-3275
▁reference	-3276
CONTRIBUTING	-3277
▁Sp	-3278
0829	-3279
pping	-3280
▁agree	-3281
▁helps	-3282
checkbox	-3283
▁success	-3284
NG	-3285
ko	-3286
../	-3287
264	-3288
since	-3289
▁load	-3290
▁cover	-3291
ception	-3292
service	-3293
endpoint	-3294
openvino	-3295
▁integration	-3296
fr	-3297
ULL	-3298
ano	-3299
lot	-3300
▁113	-3301
CHANGE	-3302
awesome	-3303
=17	-3304
▁70	-3305
datas	-3306
▁Links	-3307
▁Provide	-3308
UE	-3309
rite	-3310
78618	-3311
short	-3312
▁Cont	-3313
codeql	-3314
itware	-3315
▁Visit	-3316
▁assign	-3317
▁refactor	-3318
using	-3319
▁bott	-3320
transform	-3321
DS	-3322
logo	-3323
▁Why	-3324
contri	-3325
xyflow	-3326
▁image	-3327
▁division	-3328
2.0	-3329
174-	-3330
▁App	-3331
▁`63	-3332
-7973	-3333
shine	-3334
utput	-3335
istics	-3336
▁short	-3337
174-436	-3338
buildId	-3339
include	-3340
▁Sample	-3341
-7973-49	-3342
▁response	-3343
8-9174-436	-3344
8-9174-4360829	-3345
2-	-3346
5/	-3347
24-	-3348
MED	-3349
empt	-3350
demic	-3351
▁:---	-3352
▁score	-3353
▁diagram	-3354
▁similar	-3355
codereview	-3356
263	-3357
▁ali	-3358
array	-3359
store	-3360
▁static	-3361
1)	-3362
Oid	-3363
ute	-3364
1%)`	-3365
▁say	-3366
▁Need	-3367
▁However	-3368
▁authored	-3369
▁vis	-3370
▁info	-3371
correct	-3372
forward	-3373
▁working	-3374
▁supports	-3375
datascience	-3376
▁ge	-3377
cope	-3378
▁Type	-3379
urther	-3380
gstatic	-3381
▁Checklist	-3382
OSS	-3383
led	-3384
facing	-3385
update	-3386
▁Linux	-3387
▁extra	-3388
olution	-3389
fficient	-3390
ustedsec	-3391
▁microsoft	-3392
List	-3393
ched	-3394
▁108	-3395
▁ter	-3396
mocha	-3397
▁Keras	-3398
▁clear	-3399
▁Detect	-3400
Pipeline	-3401
▁Support	-3402
codereviewagent	-3403
pme	-3404
heart	-3405
▁descri	-3406
creation	-3407
interactivity	-3408
TF	-3409
377	-3410
▁+/-	-3411
▁133	-3412
▁|---|---|	-3413
▁maintainer	-3414
cr	-3415
rci	-3416
dete	-3417
▁ops	-3418
▁After	-3419
▁75	-3420
▁CON	-3421
▁Hits	-3422
bugging	-3423
▁Misses	-3424
════════	-3425
▁Branches	-3426
ono	-3427
Leak	-3428
▁yamadashy	-3429
▁\	-3430
props	-3431
Period	-3432
crypto	-3433
▁second	-3434
▁Codecov	-3435
▁refresh	-3436
nly	-3437
astic	-3438
token	-3439
IMPORT	-3440
thread	-3441
previous	-3442
vb	-3443
1.0	-3444
liz	-3445
ten	-3446
wor	-3447
.***	-3448
▁drci	-3449
otential	-3450
oin	-3451
▁isn	-3452
▁verify	-3453
archives	-3454
▁SigmaHQ	-3455
zy	-3456
ock	-3457
ump	-3458
only	-3459
spots	-3460
▁Fail	-3461
ium	-3462
rss	-3463
tes	-3464
enses	-3465
/28	-3466
ANT	-3467
▁126	-3468
etrics	-3469
▁within	-3470
▁Missing	-3471
distribute	-3472
Win	-3473
aset	-3474
Count	-3475
▁conver	-3476
assistant	-3477
▁settings	-3478
▁Suspicious	-3479
als	-3480
fjh	-3481
▁py	-3482
RMED	-3483
fjhz	-3484
refd	-3485
acawb	-3486
▁days	-3487
gqfjhz	-3488
azurefd	-3489
acawbecy	-3490
adoption	-3491
CONFIRMED	-3492
GetService	-3493
StatusBadge	-3494
gqfjhzacawbecy	-3495
116	-3496
`**	-3497
unt	-3498
call	-3499
illa	-3500
Share	-3501
bution	-3502
cepted	-3503
▁finish	-3504
▁someone	-3505
Changelog	-3506
sinceLeak	-3507
sinceLeakPeriod	-3508
▁lot	-3509
reg	-3510
▁69	-3511
elements	-3512
feedback	-3513
▁failing	-3514
▁approach	-3515
1-	-3516
SI	-3517
don	-3518
▁aw	-3519
quic	-3520
kernel	-3521
▁worker	-3522
▁backend	-3523
▁changing	-3524
▁probably	-3525
▁suggestion	-3526
5)	-3527
cul	-3528
kely	-3529
otal	-3530
▁Auto	-3531
▁seem	-3532
▁(-0.0	-3533
▁occur	-3534
▁suite	-3535
▁72	-3536
wise	-3537
▁#23	-3538
olved	-3539
custom	-3540
▁action	-3541
▁anywhere	-3542
The	-3543
rompt	-3544
▁Passed	-3545
▁Project	-3546
━━	-3547
▁ID	-3548
▁(-16	-3549
▁allows	-3550
measures	-3551
ater	-3552
▁node	-3553
ethereum	-3554
IMPORTANT	-3555
SL	-3556
hr	-3557
/54	-3558
Fla	-3559
por	-3560
vpp	-3561
FFFF	-3562
▁VPP	-3563
eaker	-3564
000200	-3565
▁sequence	-3566
:00	-3567
kes	-3568
▁SE	-3569
cerpt	-3570
iling	-3571
Parsed	-3572
andard	-3573
▁(-16)	-3574
▁dtype	-3575
strings	-3576
workflows	-3577
▁definition	-3578
780]	-3579
most	-3580
over	-3581
vend	-3582
▁tab	-3583
▁search	-3584
▁134	-3585
▁3.1	-3586
script	-3587
▁bottom	-3588
000200783	-3589
▁00000200783	-3590
Su	-3591
top	-3592
Path	-3593
Result	-3594
buttons	-3595
▁author	-3596
▁keywords	-3597
=6	-3598
\_	-3599
lla	-3600
▁mer	-3601
etary	-3602
classic	-3603
website	-3604
prietary	-3605
categories	-3606
AM	-3607
▁[:	-3608
helm	-3609
paragraph	-3610
▁Consider	-3611
▁248	-3612
▁aff	-3613
notes	-3614
5.0	-3615
pip	-3616
▁unless	-3617
▁separate	-3618
guidelines	-3619
preferences	-3620
▁472	-3621
▁tak	-3622
agged	-3623
------	-3624
antastic	-3625
▁impacted	-3626
▁permission	-3627
1/	-3628
0.0%	-3629
▁392	-3630
trial	-3631
gitflow	-3632
▁assert	-3633
filepath	-3634
OC	-3635
Act	-3636
len	-3637
verse	-3638
▁Cloud	-3639
▁[0.0%	-3640
quickjs	-3641
▁Compar	-3642
▁appear	-3643
ulnerability	-3644
▁](	-3645
▁152	-3646
level	-3647
ically	-3648
▁least	-3649
excerpt	-3650
toolkit	-3651
featured	-3652
▁meaning	-3653
▁appropri	-3654
hb	-3655
ale	-3656
/1.1	-3657
Read	-3658
scores	-3659
terest	-3660
▁Could	-3661
managing	-3662
%21	-3663
▁Inc	-3664
umbre	-3665
%21%20	-3666
loudsp	-3667
offers	-3668
spacer	-3669
tagline	-3670
umbrella	-3671
▁reflect	-3672
fantastic	-3673
loudspeaker	-3674
proprietary	-3675
URL	-3676
ters	-3677
Cloud	-3678
String	-3679
▁Create	-3680
▁switch	-3681
▁charact	-3682
den	-3683
▁Go	-3684
outs	-3685
rict	-3686
ession	-3687
OB	-3688
-09	-3689
mirror	-3690
▁sense	-3691
nn	-3692
sw	-3693
"></	-3694
.2</	-3695
▁flow	-3696
▁hard	-3697
▁lint	-3698
ham	-3699
std	-3700
knet	-3701
▁**`	-3702
checks	-3703
▁boost	-3704
pluknet	-3705
▁incomp	-3706
▁methods	-3707
OL	-3708
ada	-3709
▁16	-3710
submit	-3711
▁Before	-3712
5-	-3713
ams	-3714
ont	-3715
/214	-3716
ared	-3717
▁Pre	-3718
asing	-3719
local	-3720
▁cause	-3721
githubapp	-3722
▁overflow	-3723
9.3	-3724
▁#3	-3725
ties	-3726
▁didn	-3727
▁Changed	-3728
▁failure	-3729
▁relevant	-3730
olang	-3731
ily	-3732
ping	-3733
pper	-3734
carry	-3735
cmalloc	-3736
carryforward	-3737
%>	-3738
afe	-3739
Info	-3740
shape	-3741
Number	-3742
reviews	-3743
▁effect	-3744
▁|---|---|---|	-3745
je	-3746
uous	-3747
▁Link	-3748
▁Pages	-3749
▁annou	-3750
▁cache	-3751
▁recent	-3752
directory	-3753
▁applicable	-3754
mail	-3755
▁Ass	-3756
flake	-3757
▁lead	-3758
▁Patch	-3759
ference	-3760
▁Sentry	-3761
▁artifact	-3762
▁continue	-3763
%.	-3764
▁Q	-3765
sfra	-3766
rocket	-3767
network	-3768
▁Version	-3769
▁automated	-3770
▁consistent	-3771
▁distributed	-3772
NA	-3773
▁AI	-3774
lies	-3775
vite	-3776
▁349	-3777
moved	-3778
▁sever	-3779
▁started	-3780
▁=>	-3781
uzzer	-3782
ilename	-3783
▁download	-3784
▁properly	-3785
Ar	-3786
Vy	-3787
vs	-3788
▁CLI	-3789
donho	-3790
reply	-3791
wards	-3792
▁header	-3793
▁tested	-3794
ili	-3795
ants	-3796
ired	-3797
▁Testing	-3798
▁parsing	-3799
Fn	-3800
▁^	-3801
434	-3802
5">	-3803
dot	-3804
Tool	-3805
▁pkg	-3806
npmjs	-3807
development	-3808
oz	-3809
▁!	-3810
/).	-3811
color	-3812
label	-3813
takes	-3814
▁inside	-3815
▁attempt	-3816
'>	-3817
pst	-3818
utes	-3819
▁Let	-3820
▁Tag	-3821
▁fav	-3822
▁foc	-3823
▁sym	-3824
Torch	-3825
const	-3826
▁linked	-3827
▁prefix	-3828
EX	-3829
▁Dis	-3830
ftware	-3831
▁Deploy	-3832
▁compli	-3833
^^^^^^^^	-3834
▁By	-3835
.1.1	-3836
Event	-3837
teger	-3838
Python	-3839
engineer	-3840
▁improvements	-3841
jax	-3842
king	-3843
▁Community	-3844
conventions	-3845
DB	-3846
ni	-3847
sa	-3848
▁top	-3849
images	-3850
through	-3851
00,	-3852
lobal	-3853
▁calls	-3854
▁interest	-3855
xx	-3856
cons	-3857
▁HTTP	-3858
▁redu	-3859
termin	-3860
contribut	-3861
-2020-1521	-3862
*.	-3863
▁5.	-3864
/5.3	-3865
added	-3866
setup	-3867
▁level	-3868
▁against	-3869
▁6.	-3870
biome	-3871
▁Agree	-3872
control	-3873
libs	-3874
▁CPU	-3875
▁tips	-3876
▁maybe	-3877
▁wrong	-3878
▁models	-3879
cloudflare	-3880
▁Comparing	-3881
:5	-3882
opi	-3883
▁AN	-3884
▁red	-3885
andom	-3886
enable	-3887
opilot	-3888
vercel	-3889
Options	-3890
renatus	-3891
▁target	-3892
▁further	-3893
▁detection	-3894
=59	-3895
.2.0	-3896
▁points	-3897
anguages	-3898
CHANGELOG	-3899
vulnerabilities	-3900
:<	-3901
Ad	-3902
Ca	-3903
Up	-3904
/26	-3905
cGF	-3906
▁#6	-3907
orry	-3908
▁Min	-3909
Client	-3910
▁exact	-3911
▁produ	-3912
▁speed	-3913
ritical	-3914
workers	-3915
▁mention	-3916
▁condition	-3917
▁Po	-3918
/174	-3919
home	-3920
▁fine	-3921
▁delete	-3922
ZXMv	-3923
▁ear	-3924
▁Hand	-3925
▁torch	-3926
containerd	-3927
.19	-3928
0">	-3929
Git	-3930
▁&&	-3931
▁!!!	-3932
▁mind	-3933
▁thing	-3934
▁Apache	-3935
▁analysis	-3936
Cloudflare	-3937
▁Analytics	-3938
▁appropriate	-3939
/76	-3940
sume	-3941
cGFja	-3942
inder	-3943
▁host	-3944
FnZXMv	-3945
modules	-3946
▁defined	-3947
▁Guidelines	-3948
3-	-3949
OU	-3950
▁op	-3951
bool	-3952
samp	-3953
▁With	-3954
▁Looks	-3955
▁detected	-3956
EP	-3957
wc	-3958
old	-3959
▁form	-3960
counts	-3961
ressed	-3962
▁export	-3963
▁invalid	-3964
▁detailed	-3965
▁NULL	-3966
▁scan	-3967
▁typo	-3968
Update	-3969
▁discussion	-3970
Al	-3971
66-	-3972
▁modules	-3973
AD	-3974
ader	-3975
▁feel	-3976
▁ident	-3977
▁vulnerabilities	-3978
alf	-3979
rix	-3980
hono	-3981
▁send	-3982
▁CMake	-3983
▁entire	-3984
analytics	-3985
▁completed	-3986
NN	-3987
ict	-3988
debug	-3989
▁macOS	-3990
▁Examples	-3991
▁Agreement	-3992
Cre	-3993
arf	-3994
vices	-3995
▁markdown	-3996
▁standard	-3997
MS	-3998
dia	-3999
from	-4000
this	-4001
▁Yes	-4002
appro	-4003
atial	-4004
▁chat	-4005
▁tags	-4006
▁Alerts	-4007
▁Office	-4008
▁Command	-4009
▁repomix	-4010
/55	-4011
ols	-4012
()</	-4013
Main	-4014
plit	-4015
▁2.4	-4016
▁4.0	-4017
.00%>	-4018
Config	-4019
alerts	-4020
▁alloc	-4021
▁74	-4022
▁clar	-4023
Editor	-4024
▁Source	-4025
>(	-4026
->>	-4027
▁#4	-4028
▁max	-4029
bject	-4030
▁assist	-4031
HA	-4032
Tr	-4033
.2.	-4034
eca	-4035
has	-4036
her	-4037
max	-4038
MENT	-4039
asks	-4040
▁seg	-4041
match	-4042
▁minim	-4043
▁likely	-4044
nowflake	-4045
~~~~~~~~	-4046
▁extensions	-4047
▁#29	-4048
usion	-4049
Copilot	-4050
pstream	-4051
mk	-4052
6.0	-4053
▁old	-4054
▁core	-4055
▁step	-4056
snowflake	-4057
issuecomment	-4058
/33	-4059
▁#73	-4060
▁ski	-4061
rules	-4062
▁lists	-4063
▁minutes	-4064
▁operations	-4065
fail	-4066
umpl	-4067
▁pip	-4068
▁mess	-4069
Output	-4070
▁called	-4071
▁python	-4072
contributor	-4073
▁introduces	-4074
0)	-4075
2">	-4076
hat	-4077
Core	-4078
exec	-4079
iven	-4080
▁<0.	-4081
▁adjust	-4082
mergebot	-4083
▁<0.00%>	-4084
▁respect	-4085
pytorchmergebot	-4086
cce	-4087
▁OR	-4088
Comm	-4089
high	-4090
▁mat	-4091
umplings	-4092
▁pattern	-4093
▁incorrect	-4094
mi	-4095
▁Node	-4096
▁Power	-4097
latform	-4098
▁prefer	-4099
chrisbra	-4100
githubuser	-4101
▁meaningful	-4102
▁Contributor	-4103
▁`{	-4104
onse	-4105
ecter	-4106
▁User	-4107
▁large	-4108
ractices	-4109
▁codebase	-4110
▁document	-4111
6)	-4112
>3	-4113
KE	-4114
xff	-4115
▁MS	-4116
dered	-4117
oring	-4118
▁`63.	-4119
▁date	-4120
Dumplings	-4121
ecterShell	-4122
▁Te	-4123
▁Dev	-4124
chrom	-4125
▁arch	-4126
▁contact	-4127
▁guidelines	-4128
ZW	-4129
try	-4130
aved	-4131
▁exist	-4132
cryptography	-4133
If	-4134
Jj	-4135
▁low	-4136
▁pur	-4137
▁graph	-4138
pytorchbot	-4139
An	-4140
225	-4141
3.2	-4142
gor	-4143
▁dev	-4144
▁lit	-4145
▁task	-4146
▁debug	-4147
▁Security	-4148
▁particip	-4149
▁highlight	-4150
Lo	-4151
▁bro	-4152
NVIDIA	-4153
vanced	-4154
▁linux	-4155
cordion	-4156
contribute	-4157
▁structure	-4158
cur	-4159
ees	-4160
ley	-4161
rid	-4162
anth	-4163
▁Trans	-4164
▁Example	-4165
▁interact	-4166
▁Validation	-4167
Cell	-4168
akra	-4169
▁Don	-4170
▁mirror	-4171
SA	-4172
sl	-4173
/25	-4174
▁`/	-4175
owners	-4176
▁paths	-4177
▁conversion	-4178
▁DefinitelyTyped	-4179
CP	-4180
13/	-4181
aded	-4182
mode	-4183
▁565	-4184
▁nmap	-4185
system	-4186
headers	-4187
▁Closes	-4188
uristics	-4189
▁created	-4190
alkthrough	-4191
LS	-4192
xla	-4193
qual	-4194
▁rece	-4195
▁posit	-4196
aiohttp	-4197
IS	-4198
-76	-4199
4.0	-4200
lack	-4201
▁common	-4202
▁provides	-4203
compression	-4204
".	-4205
4/	-4206
Time	-4207
\377	-4208
izes	-4209
utor	-4210
▁188	-4211
▁dec	-4212
▁reading	-4213
▁several	-4214
▁Additional	-4215
64-	-4216
▁far	-4217
changes	-4218
spatial	-4219
▁maintainers	-4220
TER	-4221
▁bin	-4222
▁ser	-4223
▁move	-4224
▁port	-4225
▁root	-4226
inuous	-4227
▁Agent	-4228
▁assum	-4229
secrets	-4230
▁reviewed	-4231
mm	-4232
-99	-4233
sys	-4234
/9.3	-4235
iceberg	-4236
▁bundle	-4237
▁regard	-4238
uda	-4239
▁OF	-4240
izers	-4241
deleted	-4242
▁announce	-4243
So	-4244
25.	-4245
▁`#	-4246
Color	-4247
Quant	-4248
elated	-4249
▁optional	-4250
▁Documentation	-4251
dotnet	-4252
▁leave	-4253
▁shape	-4254
▁caused	-4255
▁images	-4256
patterns	-4257
itionally	-4258
MichaelCade	-4259
pb	-4260
closed	-4261
reviewer	-4262
▁pointer	-4263
%)	-4264
SD	-4265
TED	-4266
met	-4267
unk	-4268
brad	-4269
▁Any	-4270
Group	-4271
posed	-4272
▁soon	-4273
remote	-4274
Strategy	-4275
certificate	-4276
905	-4277
olve	-4278
unpkg	-4279
▁vulnerability	-4280
-07-	-4281
aste	-4282
ises	-4283
Build	-4284
function	-4285
▁cleanup	-4286
▁program	-4287
2_	-4288
▁window	-4289
addedOwners	-4290
deletedOwners	-4291
▁Z	-4292
ised	-4293
▁Per	-4294
▁vim	-4295
Added	-4296
▁word	-4297
status	-4298
▁never	-4299
download	-4300
)**	-4301
▁ci	-4302
▁ok	-4303
alue	-4304
shake	-4305
golang	-4306
▁stream	-4307
Activity	-4308
▁approved	-4309
▁removing	-4310
▁attribute	-4311
▁recommended	-4312
4.2	-4313
Dat	-4314
Sql	-4315
dir	-4316
vue	-4317
menu	-4318
ulti	-4319
▁139	-4320
▁192	-4321
ether	-4322
chakra	-4323
▁behind	-4324
▁selection	-4325
`:	-4326
cp	-4327
644	-4328
=60	-4329
/173	-4330
unks	-4331
▁122	-4332
▁writing	-4333
▁property	-4334
64.	-4335
▁`^	-4336
▁131	-4337
based	-4338
double	-4339
execut	-4340
gitlab	-4341
▁assimp	-4342
▁replace	-4343
customize	-4344
._	-4345
6-	-4346
Min	-4347
▁12	-4348
▁print	-4349
▁service	-4350
LOW	-4351
lie	-4352
lup	-4353
ody	-4354
▁Ad	-4355
▁{"	-4356
▁132	-4357
▁ANY	-4358
hance	-4359
▁loop	-4360
anything	-4361
▁showing	-4362
234	-4363
.%20	-4364
auto	-4365
▁763	-4366
green	-4367
icial	-4368
ramew	-4369
abling	-4370
▁easier	-4371
tructure	-4372
▁calling	-4373
▁variables	-4374
598	-4375
Cor	-4376
nux	-4377
▁414	-4378
▁May	-4379
▁pages	-4380
/66	-4381
▁Me	-4382
▁es	-4383
User	-4384
proc	-4385
ister	-4386
▁Ready	-4387
vendors	-4388
requests	-4389
shortcode	-4390
▁arguments	-4391
}`	-4392
/13	-4393
/56	-4394
▁79	-4395
1.26	-4396
Node	-4397
rollup	-4398
▁tools	-4399
internal	-4400
▁checking	-4401
CI	-4402
}.	-4403
▁Bu	-4404
wner	-4405
your	-4406
andre	-4407
▁team	-4408
ellard	-4409
▁share	-4410
▁inputs	-4411
ivi	-4412
you	-4413
2/20	-4414
late	-4415
ashes	-4416
>9	-4417
UN	-4418
/50	-4419
iref	-4420
nost	-4421
diffs	-4422
irefox	-4423
▁reach	-4424
▁repla	-4425
▁Status	-4426
▁editor	-4427
reference	-4428
▁[08/02/20	-4429
▁potential	-4430
.,	-4431
0,	-4432
GB	-4433
.](	-4434
/53	-4435
/213	-4436
▁keys	-4437
artifact	-4438
▁Partials	-4439
▁pipeline	-4440
▁reported	-4441
Documentation	-4442
>&	-4443
>4	-4444
#49	-4445
719	-4446
fin	-4447
rame	-4448
▁big	-4449
▁unn	-4450
assert	-4451
▁shown	-4452
related	-4453
veloper	-4454
▁Worker	-4455
▁blocks	-4456
before	-4457
▁checked	-4458
▁includes	-4459
▁gperftools	-4460
5.3	-4461
gan	-4462
Lite	-4463
▁(20	-4464
Inter	-4465
value	-4466
▁Since	-4467
Version	-4468
enerate	-4469
segment	-4470
▁resume	-4471
▁anything	-4472
5.1	-4473
With	-4474
orma	-4475
▁[`^	-4476
▁pos	-4477
▁fails	-4478
allback	-4479
▁fields	-4480
▁length	-4481
▁compiler	-4482
hol	-4483
views	-4484
▁rest	-4485
browse	-4486
chedul	-4487
ecause	-4488
▁layer	-4489
unknown	-4490
bradking	-4491
▁development	-4492
facebookresearch	-4493
gex	-4494
ique	-4495
▁143	-4496
▁idea	-4497
▁great	-4498
▁engine	-4499
▁google	-4500
▁instance	-4501
mergeRequest	-4502
sert	-4503
▁191	-4504
ropics	-4505
stream	-4506
▁owner	-4507
▁unpkg	-4508
quantizers	-4509
:4	-4510
AL	-4511
cale	-4512
inja	-4513
rigin	-4514
▁stor	-4515
ensive	-4516
▁enough	-4517
ddd	-4518
ntu	-4519
Conv	-4520
help	-4521
ming	-4522
allow	-4523
ators	-4524
▁Size	-4525
-20250	-4526
WinGet	-4527
▁indic	-4528
twitter	-4529
▁metadata	-4530
minimistjs	-4531
Max	-4532
esh	-4533
oke	-4534
spf	-4535
clar	-4536
▁Mod	-4537
arfur	-4538
▁Here	-4539
tearfur	-4540
"}	-4541
0-	-4542
kk	-4543
▁~	-4544
();	-4545
pth	-4546
▁48	-4547
opef	-4548
▁1.4	-4549
▁wra	-4550
buntu	-4551
ining	-4552
▁Find	-4553
▁brow	-4554
▁Avoid	-4555
commits	-4556
-2020-13	-4557
▁whether	-4558
▁patterns	-4559
▁HandBrake	-4560
▁developer	-4561
CT	-4562
New	-4563
SER	-4564
cle	-4565
▁RE	-4566
▁fd	-4567
▁ro	-4568
%20%	-4569
2">#	-4570
Full	-4571
ayer	-4572
▁saw	-4573
ividu	-4574
login	-4575
▁marp	-4576
▁pytorch	-4577
▁TensorRT	-4578
-2021-2955	-4579
▁Additionally	-4580
OW	-4581
8.1	-4582
CHE	-4583
Well	-4584
leaf	-4585
▁13.	-4586
▁Log	-4587
▁11.4	-4588
▁These	-4589
▁token	-4590
opefully	-4591
▁solution	-4592
GV	-4593
▁OS	-4594
write	-4595
▁Play	-4596
▁less	-4597
▁live	-4598
▁pause	-4599
▁repos	-4600
▁limited	-4601
▁platform	-4602
▁"2025-08-	-4603
FO	-4604
bl	-4605
yL	-4606
Bug	-4607
gpt	-4608
ird	-4609
oci	-4610
▁DE	-4611
▁#10	-4612
vider	-4613
initions	-4614
▁session	-4615
▁messages	-4616
▁milestone	-4617
9)	-4618
zL	-4619
***	-4620
178	-4621
bio	-4622
mer	-4623
uff	-4624
way	-4625
▁87	-4626
▁dat	-4627
orter	-4628
▁side	-4629
Office	-4630
models	-4631
▁Autom	-4632
testing	-4633
▁actual	-4634
▁struct	-4635
##	-4636
1.3	-4637
Svc	-4638
Model	-4639
▁Inclu	-4640
▁getting	-4641
▁manifest	-4642
▁compliance	-4643
▁highlighting	-4644
6">	-4645
Man	-4646
ario	-4647
-09-0	-4648
nostic	-4649
discord	-4650
/18	-4651
Imp	-4652
▁`-	-4653
gexp	-4654
onnx	-4655
liked	-4656
Please	-4657
member	-4658
▁setup	-4659
▁owners	-4660
7)	-4661
ned	-4662
▁86	-4663
▁cr	-4664
.4</	-4665
ride	-4666
unch	-4667
attri	-4668
-76-29	-4669
▁Issue	-4670
options	-4671
▁NVIDIA	-4672
WinGetSvc	-4673
▁languages	-4674
▁parameters	-4675
typescriptlang	-4676
yf	-4677
/63	-4678
JjL	-4679
▁CU	-4680
.1.0	-4681
arent	-4682
import	-4683
▁named	-4684
▁thank	-4685
dataviews	-4686
▁execution	-4687
▁permissions	-4688
/22	-4689
cfa	-4690
full	-4691
onar	-4692
resp	-4693
phant	-4694
produ	-4695
▁align	-4696
000000,	-4697
▁Search	-4698
▁pushed	-4699
▁trying	-4700
\377\377	-4701
galad	-4702
▁deprec	-4703
▁strong	-4704
handbook	-4705
▁rendered	-4706
▁artifacts	-4707
▁participant	-4708
hi	-4709
rd	-4710
120	-4711
cap	-4712
fer	-4713
luc	-4714
▁Event	-4715
▁means	-4716
▁Ubuntu	-4717
▁accounts	-4718
▁activity	-4719
=58	-4720
▁My	-4721
length	-4722
▁Azure	-4723
▁having	-4724
▁occurs	-4725
▁remain	-4726
▁statement	-4727
.13	-4728
Exp	-4729
ret	-4730
uka	-4731
2"><	-4732
uish	-4733
▁MIT	-4734
filer	-4735
▁Join	-4736
▁:---:	-4737
▁items	-4738
ividual	-4739
leaflet	-4740
▁enable	-4741
▁Because	-4742
▁checkout	-4743
trustedsec	-4744
▁experimental	-4745
7">	-4746
▁nu	-4747
filter	-4748
▁tagged	-4749
ramework	-4750
3,	-4751
pg	-4752
uh	-4753
ISS	-4754
NOT	-4755
gptq	-4756
▁Mark	-4757
ildude	-4758
Discord	-4759
amaduka	-4760
ialized	-4761
▁apache	-4762
ifications	-4763
istinguish	-4764
3)	-4765
:56	-4766
▁"-	-4767
▁(1	-4768
▁85	-4769
▁sa	-4770
3"><	-4771
arut	-4772
cell	-4773
CHECK	-4774
▁Help	-4775
▁sizes	-4776
▁throw	-4777
▁Google	-4778
▁kernel	-4779
▁Replace	-4780
▁purpose	-4781
▁Execution	-4782
By	-4783
TR	-4784
ung	-4785
▁sum	-4786
▁url	-4787
vidia	-4788
Metrics	-4789
lildude	-4790
▁strings	-4791
MO	-4792
hq	-4793
nR	-4794
np	-4795
5.9	-4796
war	-4797
acks	-4798
fork	-4799
▁Fla	-4800
creen	-4801
styles	-4802
▁returns	-4803
▁skipped	-4804
-20250905	-4805
▁examples	-4806
▁warnings	-4807
significant	-4808
▁distinguish	-4809
▁distribution	-4810
Bw	-4811
oM	-4812
.1.	-4813
2.3	-4814
Tra	-4815
bcb	-4816
Hand	-4817
hash	-4818
host	-4819
uple	-4820
▁Imp	-4821
▁put	-4822
resent	-4823
▁raise	-4824
▁Should	-4825
▁employ	-4826
▁simple	-4827
▁consistency	-4828
serialization	-4829
API	-4830
rove	-4831
▁Cor	-4832
posal	-4833
▁Feel	-4834
▁sent	-4835
create	-4836
ending	-4837
export	-4838
▁construct	-4839
▁heuristics	-4840
▁#5	-4841
imate	-4842
▁ensu	-4843
▁later	-4844
PyTorch	-4845
rotation	-4846
▁Gutenberg	-4847
/59	-4848
gpu	-4849
/215	-4850
reed	-4851
/1618	-4852
ISSUE	-4853
ertain	-4854
sfragments	-4855
*,	-4856
7/	-4857
mt	-4858
ASF	-4859
0"><	-4860
actor	-4861
false	-4862
james	-4863
choice	-4864
▁concer	-4865
▁applying	-4866
newsfragments	-4867
GW	-4868
/43	-4869
chn	-4870
vas	-4871
▁car	-4872
ature	-4873
redit	-4874
▁Done	-4875
▁zero	-4876
▁Maybe	-4877
▁catch	-4878
▁float	-4879
▁affect	-4880
▁postgres	-4881
checkboxId	-4882
ji	-4883
zh	-4884
/14	-4885
Ass	-4886
gge	-4887
sig	-4888
▁OK	-4889
ered	-4890
lite	-4891
▁day	-4892
▁pop	-4893
alize	-4894
iagnostic	-4895
Jh	-4896
RC	-4897
">#19	-4898
istry	-4899
▁Data	-4900
▁bound	-4901
License	-4902
enchmark	-4903
▁airflow	-4904
▁complet	-4905
Maintainer	-4906
creenshots	-4907
▁‘	-4908
▁┆	-4909
squ	-4910
urd	-4911
Conf	-4912
▁Rule	-4913
▁desired	-4914
▁simplif	-4915
Be	-4916
qg	-4917
15:	-4918
ople	-4919
email	-4920
endar	-4921
ponse	-4922
total	-4923
touch	-4924
▁wait	-4925
visible	-4926
▁itself	-4927
▁describe	-4928
▁workflows	-4929
4">	-4930
▁18	-4931
nvie	-4932
Click	-4933
gress	-4934
▁Comp	-4935
Cellar	-4936
faults	-4937
▁credit	-4938
▁complex	-4939
▁Information	-4940
▁Py	-4941
epad	-4942
radio	-4943
▁bytes	-4944
▁notepad	-4945
▁placehol	-4946
compressed	-4947
([	-4948
pc	-4949
And	-4950
Size	-4951
foot	-4952
maid	-4953
▁sec	-4954
rtual	-4955
▁More	-4956
▁mock	-4957
compat	-4958
▁scope	-4959
GroupId	-4960
feature	-4961
▁tensors	-4962
Developer	-4963
▁contents	-4964
▁successful	-4965
utg	-4966
oken	-4967
▁prec	-4968
outside	-4969
▁positive	-4970
radioGroupId	-4971
▁definitions	-4972
!</	-4973
256	-4974
bash	-4975
erry	-4976
▁([`	-4977
▁3.0	-4978
Stack	-4979
laude	-4980
print	-4981
▁Sonar	-4982
session	-4983
▁assignees	-4984
contributing	-4985
▁requirements	-4986
ek	-4987
jw	-4988
lb	-4989
day	-4990
▁"/	-4991
Find	-4992
▁JSON	-4993
▁List	-4994
▁Image	-4995
openssl	-4996
▁locally	-4997
▁addition	-4998
▁interesting	-4999
▁expectations	-5000
=)	-5001
Co	-5002
ua	-5003
▁Δ	-5004
/19	-5005
cat	-5006
▁+1	-5007
▁73	-5008
....	-5009
valu	-5010
▁#55	-5011
Merge	-5012
ently	-5013
mitri	-5014
▁succe	-5015
hensive	-5016
-2019-19	-5017
▁publish	-5018
▁tracking	-5019
▁important	-5020
notification	-5021
1?	-5022
IC	-5023
9.0	-5024
▁Ar	-5025
▁id	-5026
edge	-5027
want	-5028
▁#13	-5029
dtype	-5030
emcie	-5031
readme	-5032
regexp	-5033
ascript	-5034
browser	-5035
▁preser	-5036
imension	-5037
Quantized	-5038
▁backport	-5039
▁sections	-5040
▁unnecessary	-5041
▁sta	-5042
First	-5043
▁item	-5044
▁leak	-5045
▁Quest	-5046
▁Duplic	-5047
▁affected	-5048
▁connection	-5049
\\	-5050
fs	-5051
▁;	-5052
549	-5053
903	-5054
▁#9	-5055
▁cc	-5056
iving	-5057
▁migr	-5058
▁immedi	-5059
▁however	-5060
anthropics	-5061
▁dependabot	-5062
ES	-5063
123	-5064
==)	-5065
▁On	-5066
1">#	-5067
5"><	-5068
Flag	-5069
Line	-5070
alth	-5071
ddle	-5072
orit	-5073
▁eth	-5074
Query	-5075
ather	-5076
▁paste	-5077
Dynamic	-5078
detection	-5079
▁Features	-5080
description	-5081
▁authorized	-5082
▁contributor	-5083
Mat	-5084
▁13	-5085
apis	-5086
grad	-5087
uses	-5088
▁box	-5089
▁tick	-5090
buting	-5091
istent	-5092
▁given	-5093
▁guess	-5094
▁applied	-5095
avascript	-5096
▁Creation	-5097
▁transmission	-5098
HO	-5099
MB	-5100
Mi	-5101
6.2	-5102
VER	-5103
ros	-5104
▁IN	-5105
▁ha	-5106
Pool	-5107
ried	-5108
util	-5109
vari	-5110
/1619	-5111
after	-5112
world	-5113
▁Team	-5114
lative	-5115
layers	-5116
▁building	-5117
▁contribute	-5118
▁formatting	-5119
5?	-5120
>1	-5121
▁,	-5122
qyf	-5123
▁NG	-5124
▁Ph	-5125
▁`_	-5126
/290	-5127
best	-5128
flat	-5129
omet	-5130
Value	-5131
itles	-5132
▁cake	-5133
▁Commit	-5134
▁experi	-5135
▁random	-5136
▁unused	-5137
▁compile	-5138
▁specify	-5139
▁Instructions	-5140
)<	-5141
GH	-5142
Ro	-5143
tw	-5144
aba	-5145
zip	-5146
Qube	-5147
▁Act	-5148
▁Ver	-5149
">#76	-5150
alcul	-5151
anger	-5152
under	-5153
▁stats	-5154
▁Proper	-5155
▁Analysis	-5156
▁followed	-5157
uc	-5158
8">	-5159
7"><	-5160
▁168	-5161
knqyf	-5162
▁face	-5163
▁wiki	-5164
duplic	-5165
socket	-5166
▁links	-5167
▁whole	-5168
Kitware	-5169
▁Current	-5170
▁Feedback	-5171
▁application	-5172
▁incompatible	-5173
8,	-5174
rg	-5175
Lin	-5176
qub	-5177
▁Tr	-5178
cape	-5179
▁!!️	-5180
▁NOT	-5181
Table	-5182
outer	-5183
▁2024	-5184
▁Back	-5185
▁echo	-5186
Dmitri	-5187
Server	-5188
Stream	-5189
▁Hopefully	-5190
palletsprojects	-5191
.4?	-5192
All	-5193
acy	-5194
cut	-5195
gcc	-5196
cuda	-5197
ewen	-5198
▁120	-5199
▁229	-5200
▁CSS	-5201
fully	-5202
optim	-5203
qubec	-5204
▁<100	-5205
▁Just	-5206
▁ways	-5207
yLewen	-5208
▁opening	-5209
▁passing	-5210
qubecloud	-5211
TensorFlow	-5212
▁coverable	-5213
▁exception	-5214
▁compatible	-5215
DmitriyLewen	-5216
sonarqubecloud	-5217
-7	-5218
sc	-5219
Att	-5220
5">#	-5221
CUDA	-5222
ison	-5223
ived	-5224
▁ign	-5225
▁mon	-5226
...</	-5227
bundle	-5228
sitory	-5229
▁modify	-5230
TypeScript	-5231
▁<100.00%>	-5232
${	-5233
No	-5234
VC	-5235
/78	-5236
Log	-5237
eip	-5238
arse	-5239
huge	-5240
naps	-5241
nect	-5242
allel	-5243
▁Name	-5244
▁belie	-5245
▁quite	-5246
▁design	-5247
▁typing	-5248
oundation	-5249
8)	-5250
ED	-5251
7.1	-5252
▁Or	-5253
Only	-5254
nown	-5255
▁155	-5256
▁7.1	-5257
public	-5258
webpack	-5259
▁obtain	-5260
-2022-29	-5261
ateBadge	-5262
▁appears	-5263
▁cakephp	-5264
Coroutine	-5265
▁Questions	-5266
4,	-5267
>7	-5268
NAME	-5269
ness	-5270
oked	-5271
▁314	-5272
adapt	-5273
ights	-5274
compose	-5275
formance	-5276
question	-5277
▁unignore	-5278
▁PowerEditor	-5279
▁incremental	-5280
Mo	-5281
ptr	-5282
pyca	-5283
tube	-5284
▁154	-5285
▁520	-5286
▁COM	-5287
▁Hot	-5288
▁fol	-5289
Hours	-5290
honojs	-5291
Default	-5292
Preview	-5293
current	-5294
▁behalf	-5295
academic	-5296
▁Reviewers	-5297
"`	-5298
=1	-5299
Ag	-5300
DK	-5301
ka	-5302
Rib	-5303
Set	-5304
▁95	-5305
')](	-5306
▁121	-5307
▁137	-5308
erged	-5309
nsity	-5310
story	-5311
▁legit	-5312
▁quant	-5313
▁tried	-5314
contain	-5315
▁people	-5316
QualityG	-5317
▁believe	-5318
▁scripts	-5319
milestone	-5320
▁creation	-5321
▁container	-5322
SpecterShell	-5323
QualityGateBadge	-5324
=73	-5325
tar	-5326
rele	-5327
▁#26	-5328
▁1.3	-5329
▁124	-5330
CTION	-5331
Infra	-5332
chron	-5333
ialog	-5334
ought	-5335
▁Adds	-5336
▁fact	-5337
object	-5338
▁accur	-5339
sigmahq	-5340
▁detect	-5341
▁outside	-5342
▁matching	-5343
Do	-5344
().	-5345
/05	-5346
121	-5347
3">	-5348
UIC	-5349
kor	-5350
▁Dr	-5351
▁[!	-5352
chan	-5353
▁pie	-5354
▁1.16	-5355
▁void	-5356
Action	-5357
Branch	-5358
▁async	-5359
pendent	-5360
▁fixing	-5361
▁Handbook	-5362
developers	-5363
CC	-5364
/27	-5365
:18	-5366
alg	-5367
bas	-5368
gen	-5369
tle	-5370
.0.1	-5371
ACCE	-5372
pick	-5373
plan	-5374
▁aca	-5375
aming	-5376
▁CUDA	-5377
▁fork	-5378
select	-5379
stable	-5380
▁bring	-5381
▁flags	-5382
▁video	-5383
Comment	-5384
napshot	-5385
▁Origin	-5386
▁closes	-5387
▁Related	-5388
▁certain	-5389
▁confirm	-5390
reviewers	-5391
▁academic	-5392
playground	-5393
▁aquasecurity	-5394
▁installation	-5395
OUR	-5396
ets	-5397
ste	-5398
udH	-5399
Text	-5400
ient	-5401
▁Now	-5402
smile	-5403
▁save	-5404
runner	-5405
▁tasks	-5406
heading	-5407
▁numbers	-5408
▁determin	-5409
8-	-5410
128	-5411
8.2	-5412
:53	-5413
ries	-5414
reset	-5415
▁menu	-5416
▁sort	-5417
▁stack	-5418
density	-5419
▁history	-5420
▁private	-5421
accordion	-5422
▁ethereum	-5423
▁Playground	-5424
4_	-5425
20.	-5426
:57	-5427
EXE	-5428
▁98	-5429
VyYX	-5430
▁#14	-5431
▁554	-5432
▁year	-5433
Binder	-5434
▁Sorry	-5435
refresh	-5436
▁######	-5437
cheduler	-5438
ribution	-5439
▁Reviews	-5440
practices	-5441
▁complete	-5442
▁(-0.01%)`	-5443
▁Duplication	-5444
specification	-5445
5,	-5446
>0	-5447
>8	-5448
As	-5449
Sc	-5450
aka	-5451
6"><	-5452
imal	-5453
izer	-5454
▁1.6	-5455
▁abs	-5456
ifier	-5457
▁DevX	-5458
▁uber	-5459
nvidia	-5460
▁nukeop	-5461
pygments	-5462
▁exactly	-5463
▁requires	-5464
▁Debugging	-5465
▁SonarQube	-5466
0/	-5467
QA	-5468
223	-5469
tal	-5470
▁62	-5471
Push	-5472
▁125	-5473
▁162	-5474
▁394	-5475
Afork	-5476
▁Lear	-5477
▁redo	-5478
▁Child	-5479
▁emcie	-5480
biomejs	-5481
message	-5482
Conflict	-5483
Rotation	-5484
markdown	-5485
▁Helpful	-5486
▁happens	-5487
▁kitware	-5488
▁timeout	-5489
javascript	-5490
▁otherwise	-5491
▁Continuous	-5492
▁MichaelCade	-5493
▁translation	-5494
*)	-5495
/>	-5496
Gu	-5497
oub	-5498
-1](	-5499
oice	-5500
▁255	-5501
▁354	-5502
Image	-5503
▁pers	-5504
cppdocs	-5505
▁layout	-5506
▁saying	-5507
▁trigge	-5508
Advanced	-5509
codeflow	-5510
hotspots	-5511
▁trinodb	-5512
▁CodeFlow	-5513
▁Hotspots	-5514
Diagnostic	-5515
duplicated	-5516
▁character	-5517
Contributor	-5518
▁committers	-5519
=&	-5520
Is	-5521
ov	-5522
vm	-5523
/48	-5524
500	-5525
umn	-5526
▁IP	-5527
▁`<	-5528
reci	-5529
▁420	-5530
jshttp	-5531
Content	-5532
passing	-5533
▁Adding	-5534
▁merges	-5535
▁upload	-5536
▁headers	-5537
;![	-5538
=70	-5539
YPE	-5540
sts	-5541
/216	-5542
OBAR	-5543
True	-5544
▁PEP	-5545
Style	-5546
ident	-5547
train	-5548
▁While	-5549
welcome	-5550
▁redund	-5551
calendar	-5552
lication	-5553
▁Include	-5554
▁browser	-5555
▁register	-5556
▁placeholders	-5557
PublishPipeline	-5558
CS	-5559
cs	-5560
via	-5561
▁DO	-5562
▁TE	-5563
eded	-5564
ocks	-5565
▁Int	-5566
▁Reg	-5567
State	-5568
ratch	-5569
specs	-5570
▁Look	-5571
▁said	-5572
alware	-5573
ritten	-5574
▁Learn	-5575
agement	-5576
running	-5577
accepted	-5578
▁mentioned	-5579
6/	-5580
▁“	-5581
/64	-5582
kim	-5583
mcp	-5584
▁83	-5585
dtPR	-5586
haps	-5587
pnpm	-5588
tooM	-5589
ACCEP	-5590
istic	-5591
rames	-5592
terms	-5593
trace	-5594
▁"-",	-5595
▁plan	-5596
native	-5597
BaseOid	-5598
Compare	-5599
isFirst	-5600
mochajs	-5601
pinging	-5602
pkgInfo	-5603
tooMany	-5604
▁advice	-5605
▁except	-5606
PushDate	-5607
Response	-5608
ciResult	-5609
hasMerge	-5610
sigstore	-5611
▁Actions	-5612
▁dynamic	-5613
▁integer	-5614
▁respond	-5615
CommitOid	-5616
hugeChange	-5617
Description	-5618
▁interacted	-5619
ActivityDate	-5620
Contribution	-5621
lastPushDate	-5622
mergeBaseOid	-5623
tooManyFiles	-5624
headCommitOid	-5625
hasMergeConflict	-5626
lastActivityDate	-5627
NO	-5628
▁🔔	-5629
/74	-5630
113	-5631
BwL	-5632
Red	-5633
ety	-5634
func	-5635
▁265	-5636
badge	-5637
▁compre	-5638
ACCEPTED	-5639
▁software	-5640
▁strongly	-5641
▁implemented	-5642
2?	-5643
Vs	-5644
WS	-5645
313	-5646
567	-5647
▁Lo	-5648
lass	-5649
udit	-5650
▁107	-5651
▁115	-5652
YXBwL	-5653
▁2.13	-5654
▁mach	-5655
VyYXMv	-5656
square	-5657
▁(+0.0	-5658
Windows	-5659
outines	-5660
ynchron	-5661
▁almost	-5662
approved	-5663
▁Airflow	-5664
▁Accepted	-5665
▁Measures	-5666
FnZXMvYXBwL	-5667
▁walkthrough	-5668
NU	-5669
9">	-5670
oun	-5671
▁hu	-5672
▁};	-5673
87]:	-5674
@***	-5675
lier	-5676
▁17.	-5677
▁176	-5678
▁199	-5679
▁237	-5680
▁239	-5681
▁419	-5682
batch	-5683
first	-5684
ulano	-5685
▁haven	-5686
reaking	-5687
▁parent	-5688
@***.***	-5689
controls	-5690
generate	-5691
▁thought	-5692
▁remember	-5693
attribution	-5694
isMaintainer	-5695
.36	-5696
arg	-5697
chi	-5698
▁AF	-5699
▁MB	-5700
1"><	-5701
▁179	-5702
▁356	-5703
▁ben	-5704
▁unf	-5705
trunk	-5706
▁batch	-5707
▁remote	-5708
▁simply	-5709
contents	-5710
▁plugins	-5711
Parameter	-5712
▁callback	-5713
▁***@***.***	-5714
▁Attribution	-5715
,_	-5716
ev	-5717
58.	-5718
>):	-5719
aks	-5720
udo	-5721
▁92	-5722
▁ph	-5723
Pull	-5724
ligh	-5725
pers	-5726
vers	-5727
▁103	-5728
▁195	-5729
▁341	-5730
▁365	-5731
/1620	-5732
Trans	-5733
▁Post	-5734
points	-5735
vision	-5736
mainBot	-5737
▁TFLite	-5738
▁double	-5739
tcmalloc	-5740
▁Removed	-5741
CommentID	-5742
▁crediting	-5743
▁legitimate	-5744
mainBotCommentID	-5745
HT	-5746
vk	-5747
/30	-5748
273	-5749
521	-5750
:59	-5751
4"><	-5752
64</	-5753
LETE	-5754
prop	-5755
━━━━	-5756
▁326	-5757
▁346	-5758
▁347	-5759
/).**	-5760
jinja	-5761
smith	-5762
▁2.23	-5763
▁hash	-5764
▁nice	-5765
▁play	-5766
FFFFFF	-5767
expected	-5768
▁Feature	-5769
▁smaller	-5770
▁resource	-5771
▁effective	-5772
▁Conventions	-5773
129	-5774
3-4	-5775
kin	-5776
opt	-5777
tty	-5778
▁np	-5779
1670	-5780
case	-5781
▁Exp	-5782
Great	-5783
▁1.51	-5784
▁dist	-5785
▁dates	-5786
▁green	-5787
▁store	-5788
history	-5789
▁compil	-5790
▁layers	-5791
▁account	-5792
▁encoder	-5793
▁configure	-5794
-20250905-1](	-5795
8_	-5796
0,0	-5797
22:	-5798
6](	-5799
Lib	-5800
▁ap	-5801
="16	-5802
Feat	-5803
ORDS	-5804
frow	-5805
labs	-5806
odon	-5807
▁104	-5808
▁165	-5809
▁218	-5810
▁238	-5811
▁331	-5812
▁334	-5813
▁368	-5814
▁562	-5815
▁639	-5816
▁715	-5817
▁Tri	-5818
itect	-5819
perse	-5820
▁1.43	-5821
%20%40	-5822
YWORDS	-5823
ecycle	-5824
gorith	-5825
office	-5826
plorer	-5827
▁chart	-5828
astodon	-5829
private	-5830
▁calcul	-5831
▁stable	-5832
▁unique	-5833
frowning	-5834
claration	-5835
▁immediately	-5836
▁announcements	-5837
XX	-5838
rb	-5839
ati	-5840
-2.0	-5841
▁#71	-5842
▁251	-5843
▁278	-5844
▁631	-5845
▁767	-5846
▁842	-5847
▁Bug	-5848
Block	-5849
abase	-5850
aring	-5851
ested	-5852
shell	-5853
▁1.03	-5854
▁1.08	-5855
▁runs	-5856
matted	-5857
▁MinGW	-5858
Compile	-5859
bellard	-5860
submenu	-5861
▁appreci	-5862
footnotes	-5863
codemirror	-5864
▁finishing	-5865
▁particular	-5866
Jo	-5867
jd	-5868
/70	-5869
ETA	-5870
%20-	-5871
ibly	-5872
▁201	-5873
▁202	-5874
▁286	-5875
▁291	-5876
▁637	-5877
▁que	-5878
▁1.83	-5879
▁15.9	-5880
▁2.59	-5881
prefor	-5882
sparse	-5883
▁Build	-5884
▁count	-5885
%20-%20	-5886
freeform	-5887
loginout	-5888
nextpage	-5889
▁carried	-5890
Container	-5891
biography	-5892
▁official	-5893
submission	-5894
Fcoderabbit	-5895
preformatted	-5896
AG	-5897
IF	-5898
)).	-5899
166	-5900
358	-5901
aut	-5902
buf	-5903
ift	-5904
non	-5905
ENSE	-5906
note	-5907
">#66	-5908
▁GPUs	-5909
▁cert	-5910
▁scen	-5911
▁Contributors	-5912
▁Improvements	-5913
");	-5914
8.3	-5915
leg	-5916
aged	-5917
iced	-5918
peer	-5919
▁TPU	-5920
▁len	-5921
▁yes	-5922
artic	-5923
▁ping	-5924
Dataset	-5925
Process	-5926
▁summar	-5927
▁causing	-5928
▁mistakes	-5929
▁redirect	-5930
▁segfault	-5931
▁references	-5932
9-	-5933
GT	-5934
MD	-5935
DNN	-5936
Fwc	-5937
cmd	-5938
var	-5939
▁AS	-5940
Repo	-5941
luar	-5942
▁#15	-5943
coded	-5944
appium	-5945
▁Flags	-5946
metrics	-5947
pending	-5948
▁favour	-5949
luarocks	-5950
▁processing	-5951
════════════════	-5952
ZS	-5953
wp	-5954
IND	-5955
.2.3	-5956
Fsrc	-5957
atest	-5958
undle	-5959
▁Chat	-5960
▁ease	-5961
Create	-5962
▁termin	-5963
▁helping	-5964
▁docstrings	-5965
7,	-5966
AX	-5967
OK	-5968
:16	-5969
LIC	-5970
TRT	-5971
24</	-5972
signal	-5973
titles	-5974
▁Tests	-5975
▁lower	-5976
▁regex	-5977
changed	-5978
▁gather	-5979
▁welcome	-5980
▁breaking	-5981
▁fallback	-5982
▁updating	-5983
▁duplicate	-5984
>6	-5985
BI	-5986
▁(0	-5987
scan	-5988
▁393	-5989
▁tem	-5990
queue	-5991
▁kind	-5992
▁left	-5993
Command	-5994
andregal	-5995
commenter	-5996
▁dimension	-5997
▁converting	-5998
3_	-5999
ACK	-6000
une	-6001
▁55	-6002
.4.0	-6003
/106	-6004
FwcC	-6005
Linq	-6006
\000	-6007
▁net	-6008
263]:	-6009
▁bind	-6010
▁trun	-6011
loaded	-6012
▁Admin	-6013
display	-6014
▁2025-08	-6015
▁OpenSSL	-6016
▁loading	-6017
▁succeeded	-6018
6,	-6019
9/	-6020
RF	-6021
dy	-6022
jb	-6023
cos	-6024
isf	-6025
mask	-6026
▁2.3	-6027
▁SSL	-6028
▁pin	-6029
Cache	-6030
ascon	-6031
Improve	-6032
▁schema	-6033
▁Firefox	-6034
%5	-6035
(),	-6036
4.1	-6037
▁59	-6038
bind	-6039
▁got	-6040
hooks	-6041
▁Work	-6042
ightly	-6043
ishing	-6044
▁indent	-6045
▁saving	-6046
▁transl	-6047
▁Commands	-6048
▁regarding	-6049
▁difference	-6050
▁introduced	-6051
';	-6052
1_	-6053
FT	-6054
UG	-6055
sr	-6056
5](	-6057
emo	-6058
gnu	-6059
hip	-6060
jam	-6061
pha	-6062
null	-6063
▁Try	-6064
▁Web	-6065
▁cap	-6066
rekor	-6067
▁click	-6068
▁touch	-6069
ghstack	-6070
▁taking	-6071
▁console	-6072
▁replies	-6073
▁redundant	-6074
▁significant	-6075
2:	-6076
>-	-6077
173	-6078
221	-6079
cip	-6080
how	-6081
▁cu	-6082
7">#	-6083
SION	-6084
▁Mac	-6085
▁ret	-6086
order	-6087
ormal	-6088
▁Only	-6089
▁cmake	-6090
▁parts	-6091
commend	-6092
▁initial	-6093
scheduler	-6094
▁encoding	-6095
▁scenario	-6096
▁assistance	-6097
-5	-6098
>5	-6099
XB	-6100
/58	-6101
2](	-6102
548	-6103
97/	-6104
:11	-6105
Ste	-6106
amb	-6107
enk	-6108
san	-6109
▁${	-6110
▁`8	-6111
78]:	-6112
Auth	-6113
LATE	-6114
demo	-6115
▁Man	-6116
▁Save	-6117
Plugin	-6118
▁moved	-6119
▁Action	-6120
▁filled	-6121
▁frames	-6122
▁reduce	-6123
▁screen	-6124
▁instant	-6125
▁logging	-6126
▁propose	-6127
extension	-6128
▁employer	-6129
-2019-1964	-6130
CO	-6131
ya	-6132
Inv	-6133
ism	-6134
27</	-6135
anel	-6136
kens	-6137
▁Key	-6138
▁Num	-6139
DBack	-6140
▁hund	-6141
MPLATE	-6142
eremet	-6143
▁Allow	-6144
▁space	-6145
Approve	-6146
▁associ	-6147
▁hundred	-6148
▁regular	-6149
▁windows	-6150
DBackprop	-6151
▁increase	-6152
▁backwards	-6153
▁containing	-6154
115	-6155
sha	-6156
▁UA	-6157
▁||	-6158
urse	-6159
ensed	-6160
▁From	-6161
memory	-6162
perator	-6163
▁2025-0	-6164
▁minimum	-6165
▁whenever	-6166
▁comprehensive	-6167
Ma	-6168
`?	-6169
167	-6170
581	-6171
920	-6172
dam	-6173
4">#	-6174
9"><	-6175
TENT	-6176
fras	-6177
unit	-6178
▁CVE	-6179
/5.3/	-6180
Force	-6181
equal	-6182
estim	-6183
inuss	-6184
ubunt	-6185
which	-6186
strict	-6187
▁Every	-6188
▁quick	-6189
cording	-6190
▁Merged	-6191
▁general	-6192
▁noticed	-6193
▁Filename	-6194
▁limiting	-6195
▁projects	-6196
▁selected	-6197
phantinuss	-6198
▁summarize	-6199
▁characters	-6200
▁expression	-6201
documentation	-6202
>2	-6203
>>	-6204
gz	-6205
:48	-6206
see	-6207
vin	-6208
▁""	-6209
▁2,	-6210
▁7.	-6211
▁gh	-6212
26</	-6213
8"><	-6214
Link	-6215
▁118	-6216
▁RIB	-6217
Start	-6218
▁2.69	-6219
-09-03	-6220
hamano	-6221
ubuntu	-6222
▁worth	-6223
teststs	-6224
analysis	-6225
srenatus	-6226
▁allowed	-6227
▁srenatus	-6228
▁tcmalloc	-6229
▁Reference	-6230
frastructure	-6231
▁Contributing	-6232
▁[08/02/2024-	-6233
1%	-6234
HR	-6235
430	-6236
7.0	-6237
;</	-6238
eff	-6239
zzz	-6240
00-6	-6241
4354	-6242
fuzz	-6243
▁TLS	-6244
434-9	-6245
Token	-6246
three	-6247
Latest	-6248
ulling	-6249
▁saved	-6250
▁DELETE	-6251
▁active	-6252
▁raised	-6253
▁Account	-6254
▁COMMENT	-6255
▁ensures	-6256
▁hundreds	-6257
▁Deploying	-6258
;<	-6259
dW	-6260
8.0	-6261
:27	-6262
`).	-6263
uiw	-6264
9">#	-6265
icor	-6266
▁OSS	-6267
admin	-6268
bolic	-6269
lesho	-6270
▁Inst	-6271
▁Then	-6272
/23264	-6273
aderky	-6274
linalg	-6275
onsors	-6276
▁Using	-6277
▁range	-6278
▁times	-6279
compile	-6280
virtual	-6281
▁invoke	-6282
usaderky	-6283
▁Failures	-6284
PT	-6285
mon	-6286
nik	-6287
▁(@	-6288
▁14	-6289
59-6	-6290
bust	-6291
otes	-6292
save	-6293
▁NGX	-6294
▁bad	-6295
▁mar	-6296
inner	-6297
▁stri	-6298
00-654	-6299
167043	-6300
report	-6301
▁learn	-6302
/106598	-6303
Twitter	-6304
="16"></	-6305
licenses	-6306
▁SECTION	-6307
ternative	-6308
59-6167043	-6309
crusaderky	-6310
/106598434-9	-6311
>🪧	-6312
RR	-6313
.2_	-6314
227	-6315
Lab	-6316
PUB	-6317
▁50	-6318
▁[1	-6319
Bump	-6320
What	-6321
dere	-6322
edia	-6323
rocm	-6324
ront	-6325
▁WAR	-6326
▁neg	-6327
▁Fill	-6328
▁Pack	-6329
▁Tips	-6330
▁USER	-6331
▁vend	-6332
1.26.1	-6333
chrome	-6334
Invoked	-6335
ormaliz	-6336
require	-6337
▁PLEASE	-6338
▁Select	-6339
▁CONTENT	-6340
▁mermaid	-6341
▁samples	-6342
▁TEMPLATE	-6343
DF	-6344
/3.	-6345
>](	-6346
libc	-6347
amili	-6348
clack	-6349
tutor	-6350
linked	-6351
Changes	-6352
▁Config	-6353
tsconfig	-6354
▁focused	-6355
precision	-6356
▁position	-6357
▁sufficient	-6358
[]	-6359
101	-6360
4.9	-6361
Tan	-6362
maz	-6363
▁Br	-6364
9227	-6365
-2025	-6366
▁drop	-6367
▁seen	-6368
Runner	-6369
sitter	-6370
▁frame	-6371
amiliar	-6372
ddleware	-6373
mistakes	-6374
▁Attacks	-6375
▁Malware	-6376
SqlClient	-6377
WorkerBinder	-6378
((	-6379
Hk	-6380
.4.	-6381
229	-6382
524	-6383
77)	-6384
86_	-6385
:21	-6386
[0]	-6387
tte	-6388
whe	-6389
▁io	-6390
▁xp	-6391
▁bas	-6392
▁mem	-6393
lucas	-6394
▁grow	-6395
53/5.3	-6396
change	-6397
Context	-6398
▁binary	-6399
▁broken	-6400
▁global	-6401
▁earlier	-6402
▁objects	-6403
▁reprodu	-6404
53/5.3.2_	-6405
Microsoft	-6406
▁facebook	-6407
Screenshot	-6408
▁releasing	-6409
▁trustedsec	-6410
▁visibility	-6411
Dependencies	-6412
7?	-6413
Ut	-6414
226	-6415
Int	-6416
env	-6417
>`](	-6418
dapt	-6419
dern	-6420
rary	-6421
urom	-6422
▁Sub	-6423
river	-6424
sport	-6425
▁onnx	-6426
▁split	-6427
uromark	-6428
▁element	-6429
▁override	-6430
▁installed	-6431
53/5.3.2_2/	-6432
dereuromark	-6433
▁contributions	-6434
AU	-6435
Em	-6436
INT	-6437
Url	-6438
ane	-6439
sor	-6440
▁NO	-6441
.3.0	-6442
eral	-6443
kich	-6444
▁tor	-6445
afety	-6446
▁cach	-6447
anyurd	-6448
▁story	-6449
▁words	-6450
▁causes	-6451
▁intended	-6452
▁Certificate	-6453
2%	-6454
;✅	-6455
jg	-6456
lg	-6457
yu	-6458
658	-6459
;✅&	-6460
kie	-6461
▁mix	-6462
▁APIs	-6463
▁peer	-6464
▁wasn	-6465
Filter	-6466
proved	-6467
Element	-6468
VyYXMvc	-6469
android	-6470
kichanyurd	-6471
▁confusion	-6472
▁regression	-6473
AY	-6474
nan	-6475
=1.1	-6476
fddd	-6477
▁Tra	-6478
57-99	-6479
fnode	-6480
▁Brute	-6481
▁MSPUB	-6482
▁early	-6483
▁entry	-6484
▁numpy	-6485
922766-	-6486
▁Ensure	-6487
57-9966-	-6488
emplates	-6489
▁clarity	-6490
processing	-6491
▁[#&#8203;	-6492
▁refactoring	-6493
=3	-6494
/4.	-6495
:33	-6496
rag	-6497
▁3,	-6498
▁Ca	-6499
sequ	-6500
▁233	-6501
▁hid	-6502
▁var	-6503
Input	-6504
isesG	-6505
-2022-	-6506
Proper	-6507
lisesG	-6508
schema	-6509
▁Gener	-6510
▁Hello	-6511
▁meant	-6512
▁Notepad	-6513
▁absolut	-6514
▁improved	-6515
lisesGascon	-6516
▁properties	-6517
LT	-6518
mV	-6519
▁ut	-6520
6">#	-6521
Mode	-6522
▁236	-6523
/2024	-6524
▁Most	-6525
▁[...	-6526
LICENSE	-6527
ication	-6528
\000\000	-6529
sheremet	-6530
▁enhance	-6531
▁licenses	-6532
▁addresses	-6533
";	-6534
ds	-6535
xl	-6536
.1`	-6537
▁	-6538
e	-6539
t	-6540
o	-6541
i	-6542
s	-6543
a	-6544
r	-6545
-	-6546
n	-6547
l	-6548
c	-6549
/	-6550
d	-6551
u	-6552
h	-6553
p	-6554
m	-6555
b	-6556
.	-6557
g	-6558
f	-6559
=	-6560
y	-6561
>	-6562
:	-6563
k	-6564
`	-6565
w	-6566
<	-6567
2	-6568
v	-6569
1	-6570
0	-6571
|	-6572
"	-6573
3	-6574
5	-6575
4	-6576
6	-6577
_	-6578
7	-6579
9	-6580
x	-6581
8	-6582
,	-6583
R	-6584
C	-6585
)	-6586
(	-6587
[	-6588
]	-6589
P	-6590
T	-6591
I	-6592
B	-6593
#	-6594
D	-6595
A	-6596
*	-6597
S	-6598
E	-6599
&	-6600
j	-6601
F	-6602
q	-6603
'	-6604
L	-6605
M	-6606
@	-6607
U	-6608
N	-6609
O	-6610
%	-6611
z	-6612
?	-6613
H	-6614
!	-6615
G	-6616
V	-6617
W	-6618
+	-6619
Y	-6620
\	-6621
;	-6622
─	-6623
K	-6624
Q	-6625
X	-6626
{	-6627
J	-6628
}	-6629
Z	-6630
~	-6631
^	-6632
$	-6633
═	-6634
✅	-6635
—	-6636
’	-6637
️	-6638
ø	-6639
│	-6640
━	-6641
Δ	-6642
‘	-6643
┆	-6644
“	-6645
”	-6646
📝	-6647
🔔	-6648
🪧	-6649
🤖	-6650
✨	-6651
→	-6652
🔍	-6653
🥟	-6654
⭐	-6655
❤	-6656
·	-6657
•	-6658
├	-6659
–	-6660
🧪	-6661
👋	-6662
⚠	-6663
é	-6664
👏	-6665
👍	-6666
😅	-6667
🎯	-6668
🕐	-6669
🏁	-6670
┬	-6671
┴	-6672
┼	-6673
➜	-6674
다	-6675
ー	-6676
ç	-6677
の	-6678
😄	-6679
🛠	-6680
💡	-6681
🚀	-6682
니	-6683
🤔	-6684
└	-6685
하	-6686
μ	-6687
±	-6688
로	-6689
에	-6690
을	-6691
🐞	-6692
❌	-6693
ó	-6694
⏱	-6695
ã	-6696
┤	-6697
。	-6698
이	-6699
す	-6700
し	-6701
提	-6702
🎉	-6703
©	-6704
▸	-6705
경	-6706
습	-6707
🧩	-6708
で	-6709
어	-6710
♻	-6711
í	-6712
能	-6713
장	-6714
🙏	-6715
と	-6716
대	-6717
를	-6718
📋	-6719
á	-6720
क	-6721
‍	-6722
交	-6723
언	-6724
て	-6725
스	-6726
한	-6727
해	-6728
확	-6729
📅	-6730
🚦	-6731
║	-6732
✎	-6733
が	-6734
を	-6735
的	-6736
용	-6737
、	-6738
い	-6739
な	-6740
ま	-6741
ン	-6742
의	-6743
일	-6744
る	-6745
가	-6746
🔧	-6747
😉	-6748
に	-6749
사	-6750
🌟	-6751
🤷	-6752
🪪	-6753
र	-6754
는	-6755
샘	-6756
플	-6757
🤣	-6758
à	-6759
ा	-6760
े	-6761
≥	-6762
❯	-6763
た	-6764
고	-6765
╪	-6766
⚙	-6767
れ	-6768
기	-6769
루	-6770
밀	-6771
파	-6772
्	-6773
り	-6774
ス	-6775
息	-6776
된	-6777
새	-6778
🔕	-6779
🧰	-6780
🪛	-6781
®	-6782
ि	-6783
文	-6784
機	-6785
있	-6786
자	-6787
추	-6788
🏻	-6789
📚	-6790
»	-6791
è	-6792
ê	-6793
ה	-6794
ו	-6795
ר	-6796
न	-6797
‐	-6798
こ	-6799
件	-6800
소	-6801
요	-6802
운	-6803
📜	-6804
и	-6805
ת	-6806
ो	-6807
┌	-6808
我	-6809
新	-6810
用	-6811
변	-6812
했	-6813
	-6814
📊	-6815
📒	-6816
📥	-6817
🙂	-6818
×	-6819
õ	-6820
ù	-6821
ü	-6822
е	-6823
┐	-6824
┘	-6825
동	-6826
문	-6827
함	-6828
👉	-6829
«	-6830
ν	-6831
מ	-6832
ッ	-6833
数	-6834
들	-6835
색	-6836
선	-6837
포	-6838
🏆	-6839
🔒	-6840
о	-6841
ट	-6842
⚡	-6843
か	-6844
さ	-6845
ク	-6846
ト	-6847
ド	-6848
一	-6849
了	-6850
作	-6851
使	-6852
信	-6853
出	-6854
각	-6855
력	-6856
리	-6857
상	-6858
위	-6859
제	-6860
지	-6861
😁	-6862
😆	-6863
🙌	-6864
🚨	-6865
🤦	-6866
̄	-6867
י	-6868
צ	-6869
ग	-6870
ก	-6871
は	-6872
下	-6873
在	-6874
日	-6875
법	-6876
서	-6877
수	-6878
은	-6879
입	-6880
👻	-6881
🔗	-6882
🩹	-6883
н	-6884
ं	-6885
ệ	-6886
♂	-6887
✗	-6888
ら	-6889
加	-6890
可	-6891
示	-6892
되	-6893
명	-6894
세	-6895
시	-6896
여	-6897
으	-6898
트	-6899
😕	-6900
🙈	-6901
р	-6902
с	-6903
т	-6904
う	-6905
コ	-6906
ジ	-6907
マ	-6908
修	-6909
化	-6910
志	-6911
您	-6912
本	-6913
法	-6914
版	-6915
解	-6916
거	-6917
됩	-6918
모	-6919
목	-6920
별	-6921
👀	-6922
👷	-6923
💄	-6924
💚	-6925
😸	-6926
🙇	-6927
🧹	-6928
¬	-6929
ò	-6930
а	-6931
ड	-6932
ल	-6933
น	-6934
♀	-6935
✓	-6936
❓	-6937
も	-6938
よ	-6939
サ	-6940
バ	-6941
ル	-6942
不	-6943
中	-6944
務	-6945
器	-6946
定	-6947
性	-6948
是	-6949
查	-6950
行	-6951
追	-6952
问	-6953
题	-6954
공	-6955
과	-6956
구	-6957
나	-6958
당	-6959
데	-6960
션	-6961
연	-6962
오	-6963
와	-6964
우	-6965
유	-6966
택	-6967
합	-6968
📖	-6969
🔌	-6970
â	-6971
ú	-6972
đ	-6973
м	-6974
ए	-6975
प	-6976
श	-6977
ी	-6978
่	-6979
ế	-6980
┗	-6981
あ	-6982
き	-6983
っ	-6984
エ	-6985
ツ	-6986
フ	-6987
ロ	-6988
个	-6989
任	-6990
函	-6991
吗	-6992
复	-6993
多	-6994
操	-6995
整	-6996
最	-6997
消	-6998
程	-6999
自	-7000
都	-7001
내	-7002
능	-7003
드	-7004
든	-7005
록	-7006
복	-7007
성	-7008
업	-7009
옵	-7010
워	-7011
적	-7012
중	-7013
체	-7014
키	-7015
🐛	-7016
🔄	-7017
🔐	-7018
😜	-7019
🤨	-7020
Đ	-7021
ł	-7022
л	-7023
п	-7024
я	-7025
ב	-7026
ي	-7027
उ	-7028
ज	-7029
य	-7030
व	-7031
स	-7032
।	-7033
้	-7034
ầ	-7035
ọ	-7036
←	-7037
☆	-7038
わ	-7039
イ	-7040
ウ	-7041
シ	-7042
パ	-7043
プ	-7044
ポ	-7045
・	-7046
以	-7047
保	-7048
全	-7049
到	-7050
合	-7051
善	-7052
実	-7053
快	-7054
持	-7055
改	-7056
时	-7057
有	-7058
流	-7059
発	-7060
開	-7061
검	-7062
게	-7063
라	-7064
설	-7065
저	-7066
터	-7067
🌐	-7068
🏼	-7069
💯	-7070
📦	-7071
😊	-7072
😞	-7073
😢	-7074
😥	-7075
😱	-7076
🙃	-7077
🚧	-7078
🥳	-7079
ß	-7080
ć	-7081
д	-7082
ы	-7083
פ	-7084
ا	-7085
ل	-7086
م	-7087
و	-7088
त	-7089
द	-7090
फ	-7091
ह	-7092
ॉ	-7093
ে	-7094
ย	-7095
ว	-7096
า	-7097
ไ	-7098
ử	-7099
€	-7100
∂	-7101
≤	-7102
⏰	-7103
◕	-7104
〉	-7105
お	-7106
く	-7107
ご	-7108
ざ	-7109
め	-7110
カ	-7111
タ	-7112
ナ	-7113
ュ	-7114
リ	-7115
也	-7116
优	-7117
会	-7118
例	-7119
内	-7120
决	-7121
几	-7122
前	-7123
办	-7124
動	-7125
原	-7126
同	-7127
否	-7128
和	-7129
問	-7130
回	-7131
大	-7132
好	-7133
式	-7134
意	-7135
指	-7136
教	-7137
明	-7138
来	-7139
框	-7140
正	-7141
没	-7142
白	-7143
看	-7144
義	-7145
訪	-7146
这	-7147
邮	-7148
강	-7149
개	-7150
결	-7151
도	-7152
른	-7153
발	-7154
백	-7155
실	-7156
십	-7157
전	-7158
주	-7159
최	-7160
통	-7161
틱	-7162
할	-7163
휴	-7164
🎀	-7165
💕	-7166
💢	-7167
😍	-7168
😭	-7169
🚫	-7170
🤞	-7171
Ã	-7172
Ó	-7173
Ú	-7174
ï	-7175
ñ	-7176
ư	-7177
й	-7178
ד	-7179
ט	-7180
ל	-7181
ע	-7182
ש	-7183
ن	-7184
٢	-7185
٤	-7186
इ	-7187
ब	-7188
़	-7189
ै	-7190
ি	-7191
ท	-7192
ั	-7193
ู	-7194
เ	-7195
แ	-7196
ạ	-7197
ụ	-7198
ữ	-7199
∑	-7200
⏻	-7201
╞	-7202
╡	-7203
╰	-7204
ち	-7205
づ	-7206
ど	-7207
び	-7208
ァ	-7209
ォ	-7210
ソ	-7211
ダ	-7212
テ	-7213
デ	-7214
ブ	-7215
メ	-7216
ユ	-7217
ラ	-7218
ワ	-7219
上	-7220
为	-7221
人	-7222
令	-7223
佬	-7224
供	-7225
假	-7226
冗	-7227
利	-7228
力	-7229
后	-7230
向	-7231
哈	-7232
图	-7233
始	-7234
子	-7235
存	-7236
安	-7237
容	-7238
将	-7239
小	-7240
屏	-7241
工	-7242
希	-7243
幕	-7244
庫	-7245
建	-7246
很	-7247
慶	-7248
截	-7249
接	-7250
斗	-7251
更	-7252
期	-7253
检	-7254
此	-7255
略	-7256
目	-7257
确	-7258
確	-7259
碼	-7260
私	-7261
算	-7262
系	-7263
紧	-7264
联	-7265
語	-7266
諏	-7267
赶	-7268
输	-7269
運	-7270
部	-7271
间	-7272
隐	-7273
題	-7274
간	-7275
관	-7276
그	-7277
넓	-7278
더	-7279
레	-7280
령	-7281
면	-7282
뮤	-7283
보	-7284
분	-7285
산	-7286
얻	-7287
었	-7288
재	-7289
정	-7290
조	-7291
커	-7292
티	-7293
패	-7294
퍼	-7295
프	-7296
필	-7297
항	-7298
화	-7299
	-7300
	-7301
🆕	-7302
🌸	-7303
🏗	-7304
🐍	-7305
👌	-7306
👩	-7307
💅	-7308
💔	-7309
💖	-7310
💤	-7311
😂	-7312
😎	-7313
😏	-7314
😘	-7315
😬	-7316
🚢	-7317
🛑	-7318
🛡	-7319
🟡	-7320
🟢	-7321
🧐	-7322
🫠	-7323
°	-7324
ä	-7325
ý	-7326
ś	-7327
̃	-7328
π	-7329
τ	-7330
б	-7331
в	-7332
г	-7333
з	-7334
к	-7335
у	-7336
ц	-7337
щ	-7338
ь	-7339
э	-7340
ז	-7341
ب	-7342
ش	-7343
ُ	-7344
ْ	-7345
٠	-7346
١	-7347
٥	-7348
٧	-7349
٨	-7350
ख	-7351
भ	-7352
খ	-7353
ব	-7354
র	-7355
২	-7356
৫	-7357
ง	-7358
ต	-7359
ม	-7360
อ	-7361
ี	-7362
ํ	-7363
ậ	-7364
ặ	-7365
ở	-7366
‿	-7367
−	-7368
⌚	-7369
┻	-7370
╔	-7371
╗	-7372
╚	-7373
╝	-7374
╯	-7375
●	-7376
☜	-7377
☞	-7378
✂	-7379
✌	-7380
✕	-7381
⨯	-7382
⬆	-7383
え	-7384
ね	-7385
ば	-7386
み	-7387
や	-7388
゚	-7389
ア	-7390
ェ	-7391
オ	-7392
キ	-7393
グ	-7394
ケ	-7395
ネ	-7396
ノ	-7397
ャ	-7398
与	-7399
东	-7400
于	-7401
些	-7402
余	-7403
你	-7404
佳	-7405
値	-7406
先	-7407
入	-7408
删	-7409
功	-7410
助	-7411
包	-7412
半	-7413
去	-7414
取	-7415
含	-7416
哭	-7417
啊	-7418
啥	-7419
型	-7420
基	-7421
壓	-7422
声	-7423
天	-7424
如	-7425
少	-7426
尽	-7427
差	-7428
开	-7429
張	-7430
怀	-7431
想	-7432
扫	-7433
把	-7434
报	-7435
拡	-7436
捞	-7437
排	-7438
支	-7439
放	-7440
料	-7441
无	-7442
時	-7443
档	-7444
検	-7445
洁	-7446
浪	-7447
点	-7448
為	-7449
獲	-7450
玩	-7451
现	-7452
生	-7453
画	-7454
疑	-7455
真	-7456
硬	-7457
简	-7458
箱	-7459
終	-7460
縮	-7461
考	-7462
良	-7463
虑	-7464
西	-7465
要	-7466
見	-7467
訂	-7468
討	-7469
調	-7470
认	-7471
议	-7472
试	-7473
貫	-7474
質	-7475
费	-7476
进	-7477
选	-7478
错	-7479
音	-7480
頭	-7481
项	-7482
감	-7483
교	-7484
달	-7485
될	-7486
듈	-7487
딩	-7488
때	-7489
또	-7490
랜	-7491
련	-7492
론	-7493
롭	-7494
류	-7495
만	-7496
말	-7497
며	-7498
못	-7499
무	-7500
반	-7501
부	-7502
브	-7503
석	-7504
식	-7505
안	-7506
않	-7507
잘	-7508
절	-7509
점	-7510
처	-7511
청	-7512
출	-7513
침	-7514
크	-7515
킹	-7516
타	-7517
테	-7518
현	-7519
🌍	-7520
🍪	-7521
🎭	-7522
🐳	-7523
👈	-7524
👎	-7525
👨	-7526
💁	-7527
💥	-7528
💻	-7529
📁	-7530
📄	-7531
🔇	-7532
🔬	-7533
🔴	-7534
🗺	-7535
😇	-7536
😒	-7537
😓	-7538
😤	-7539
😦	-7540
😮	-7541
😲	-7542
😳	-7543
😽	-7544
🙀	-7545
🚏	-7546
🤓	-7547
🤝	-7548
🤯	-7549
🥺	-7550
🧙	-7551
🧼	-7552
🪶	-7553
¡	-7554
­	-7555
¶	-7556
É	-7557
Í	-7558
Ü	-7559
ì	-7560
ö	-7561
č	-7562
ı	-7563
ş	-7564
ź	-7565
ơ	-7566
В	-7567
Д	-7568
Е	-7569
Н	-7570
ф	-7571
ю	-7572
א	-7573
ח	-7574
ן	-7575
ק	-7576
،	-7577
ء	-7578
إ	-7579
ت	-7580
ث	-7581
ج	-7582
ز	-7583
ع	-7584
ف	-7585
ق	-7586
ك	-7587
َ	-7588
ّ	-7589
٣	-7590
٦	-7591
٩	-7592
ٱ	-7593
आ	-7594
छ	-7595
ण	-7596
म	-7597
ष	-7598
ছ	-7599
ত	-7600
ন	-7601
ফ	-7602
ল	-7603
া	-7604
০	-7605
১	-7606
৪	-7607
৬	-7608
৯	-7609
ข	-7610
ช	-7611
ด	-7612
บ	-7613
ร	-7614
ล	-7615
ศ	-7616
ห	-7617
ะ	-7618
฿	-7619
ใ	-7620
็	-7621
ấ	-7622
ể	-7623
ễ	-7624
ỏ	-7625
ớ	-7626
ợ	-7627
ủ	-7628
―	-7629
›	-7630
↓	-7631
↳	-7632
∞	-7633
∩	-7634
≈	-7635
⊃	-7636
⌘	-7637
┠	-7638
□	-7639
▶	-7640
☁	-7641
☐	-7642
☝	-7643
♥	-7644
✔	-7645
✖	-7646
✧	-7647
⠇	-7648
⠋	-7649
⠏	-7650
⠙	-7651
⠦	-7652
⠧	-7653
⠴	-7654
⠸	-7655
⠹	-7656
⠼	-7657
⦿	-7658
々	-7659
《	-7660
》	-7661
「	-7662
」	-7663
け	-7664
じ	-7665
そ	-7666
だ	-7667
つ	-7668
ゃ	-7669
ょ	-7670
ィ	-7671
ザ	-7672
セ	-7673
チ	-7674
ハ	-7675
ビ	-7676
ヘ	-7677
ム	-7678
モ	-7679
ョ	-7680
レ	-7681
ヮ	-7682
业	-7683
両	-7684
么	-7685
亲	-7686
今	-7687
仍	-7688
从	-7689
代	-7690
休	-7691
伺	-7692
低	-7693
体	-7694
倉	-7695
們	-7696
值	-7697
側	-7698
充	-7699
免	-7700
內	-7701
再	-7702
准	-7703
分	-7704
切	-7705
列	-7706
刚	-7707
削	-7708
剩	-7709
动	-7710
効	-7711
南	-7712
参	-7713
反	-7714
古	-7715
只	-7716
台	-7717
各	-7718
名	-7719
吧	-7720
呢	-7721
呼	-7722
品	-7723
因	-7724
図	-7725
場	-7726
增	-7727
外	-7728
字	-7729
守	-7730
实	-7731
實	-7732
导	-7733
封	-7734
將	-7735
尝	-7736
展	-7737
已	-7738
师	-7739
幫	-7740
干	-7741
広	-7742
度	-7743
形	-7744
役	-7745
後	-7746
復	-7747
必	-7748
忽	-7749
思	-7750
慧	-7751
應	-7752
或	-7753
户	-7754
扩	-7755
投	-7756
択	-7757
护	-7758
换	-7759
捨	-7760
捷	-7761
插	-7762
換	-7763
摘	-7764
擴	-7765
方	-7766
於	-7767
旦	-7768
旧	-7769
易	-7770
智	-7771
書	-7772
服	-7773
束	-7774
条	-7775
标	-7776
案	-7777
標	-7778
檢	-7779
次	-7780
欢	-7781
気	-7782
求	-7783
決	-7784
注	-7785
测	-7786
添	-7787
減	-7788
満	-7789
烦	-7790
無	-7791
然	-7792
牌	-7793
理	-7794
由	-7795
留	-7796
直	-7797
省	-7798
码	-7799
秒	-7800
稿	-7801
空	-7802
立	-7803
第	-7804
策	-7805
箇	-7806
範	-7807
約	-7808
細	-7809
経	-7810
統	-7811
經	-7812
維	-7813
结	-7814
给	-7815
置	-7816
老	-7817
者	-7818
致	-7819
若	-7820
英	-7821
裝	-7822
複	-7823
见	-7824
言	-7825
記	-7826
詳	-7827
認	-7828
說	-7829
読	-7830
證	-7831
语	-7832
误	-7833
请	-7834
资	-7835
起	-7836
足	-7837
輸	-7838
转	-7839
迎	-7840
近	-7841
还	-7842
退	-7843
通	-7844
速	-7845
過	-7846
遗	-7847
選	-7848
避	-7849
里	-7850
重	-7851
键	-7852
長	-7853
関	-7854
附	-7855
除	-7856
随	-7857
需	-7858
非	-7859
须	-7860
额	-7861
験	-7862
驗	-7863
高	-7864
麻	-7865
값	-7866
것	-7867
권	-7868
급	-7869
깊	-7870
깨	-7871
께	-7872
넣	-7873
녕	-7874
느	-7875
닌	-7876
둑	-7877
램	-7878
략	-7879
러	-7880
럴	-7881
렇	-7882
릴	-7883
마	-7884
많	-7885
물	-7886
미	-7887
및	-7888
바	-7889
본	-7890
삭	-7891
생	-7892
섹	-7893
술	-7894
신	-7895
아	-7896
야	-7897
없	-7898
엇	-7899
열	-7900
왔	-7901
움	-7902
음	-7903
인	-7904
작	-7905
접	-7906
져	-7907
직	-7908
집	-7909
턴	-7910
토	-7911
풀	-7912
향	-7913
후	-7914
	-7915
🇸	-7916
🇺	-7917
🌀	-7918
🌈	-7919
🌙	-7920
🌠	-7921
🌶	-7922
🌹	-7923
🍦	-7924
🍩	-7925
🍰	-7926
🍺	-7927
🎅	-7928
🎤	-7929
🎨	-7930
🎩	-7931
🎪	-7932
🎶	-7933
🏎	-7934
🏫	-7935
🐝	-7936
🐶	-7937
🐾	-7938
👆	-7939
👥	-7940
💣	-7941
💨	-7942
💬	-7943
💰	-7944
💾	-7945
📌	-7946
📓	-7947
📹	-7948
📺	-7949
🔁	-7950
🔖	-7951
🔝	-7952
🔥	-7953
🔺	-7954
🔻	-7955
🕵	-7956
🖌	-7957
🖨	-7958
🖼	-7959
😀	-7960
😃	-7961
😋	-7962
😌	-7963
😑	-7964
😔	-7965
😛	-7966
😣	-7967
😧	-7968
😵	-7969
😹	-7970
😺	-7971
😼	-7972
😿	-7973
🙄	-7974
🙊	-7975
🛍	-7976
🤍	-7977
🤗	-7978
🤛	-7979
🤜	-7980
🤡	-7981
🤪	-7982
🥋	-7983
🥶	-7984
🥷	-7985
🥹	-7986
🦉	-7987
🦎	-7988
🧑	-7989
🧓	-7990
🧠	-7991
🧬	-7992
🪄	-7993
🪓	-7994
🪠	-7995
🫡	-7996
